name: "init"
op: "NoOp"
name: "Placeholder"
op: "Placeholder"
attr {
  key: "dtype"
  value {
    type: DT_FLOAT
  }
}
attr {
  key: "shape"
  value {
    shape {
      dim {
        size: 1
      }
      dim {
        size: -1
      }
      dim {
        size: -1
      }
      dim {
        size: 3
      }
    }
  }
}
name: "Placeholder_1"
op: "Placeholder"
attr {
  key: "dtype"
  value {
    type: DT_FLOAT
  }
}
attr {
  key: "shape"
  value {
    shape {
      dim {
        size: -1
      }
      dim {
        size: 5
      }
    }
  }
}
name: "Placeholder_2"
op: "Placeholder"
attr {
  key: "dtype"
  value {
    type: DT_FLOAT
  }
}
attr {
  key: "shape"
  value {
    shape {
      dim {
        size: 2
      }
    }
  }
}
name: "f-rcnn/conv1_1/conv1_1/conv1_1/Initializer/Const"
op: "Const"
attr {
  key: "_class"
  value {
    list {
      s: "loc:@f-rcnn/conv1_1/conv1_1/conv1_1"
    }
  }
}
attr {
  key: "dtype"
  value {
    type: DT_FLOAT
  }
}
attr {
  key: "value"
  value {
    tensor {
      dtype: DT_FLOAT
      tensor_shape {
        dim {
          size: 3
        }
        dim {
          size: 3
        }
        dim {
          size: 3
        }
        dim {
          size: 64
        }
      }
      tensor_content: "\221\343\333>H-\360=,Q\013=r\\\265>\313R\261\275\0022k>o\337\210=oR)=\357d\005>\000\315\006=\260\354\304=\241\340\274\275A\235\037\276+5V=\354{\252\275\006\020!>8\214\356<8\257P=\200!C>$\0263\275B>\271>\363\303t>\013\254*>v\3148\276\344k4=\030v\304=|s3\275\322\001A\276 44\2755iB\276\222{o\276\301r\003>\037\202\342\275%7\273;\363\253z\276\247P\234\276\037\232y=\353\004\250\276\322M/>L<\322=x\225\342\275\310\006\251>\220lp\275\3318=>\364+,</{\332=\226\002\006\276\030\306\271\276a\350\203=a3\277=D\232\203;\237\234\301>j\317W=\347\244\212\276#\206\342=[\020\362\275\231\0250=a\333\264>\312\301\221\276k\302O\276.\344\221\276Vj\007\276\357\202Z\275\264K\370;\253\345\014?)\007\253<\375g\312=\265\302\337>\315\371\340\275|\376D\276k~\310=>\203\242=\r\344\214\276\246\276\021\276\263c1>\330\020(=\324\301\225>_\200\205<\016\031\001\276vI\037\276<\313Y\275\367\2459>^\264T\276\351G\016\276\236\302\202>\350n\266>TQ\233:\267[\371\276I6\354=SX\356=\213\340\235\275\334Y\324=\304)\223\275\244\227~\273\217\352\206\276\373\353\376=O\325\230\275Y\336\037\276V{\224\276<Q\335\276\031cO=M\260\334\276\026\301\226>\216&\341\275\336\245\207=\203\2378>\026b\220\2753\215\235>\025\t\306=\237l\312=E\304\211\275U\326\367\276F\226+>+Hb\275\033\255\000>G\032\000?Sm\230\275\377l\255\276\317\016\326\274\206\225\226\275\2735\354\275\352\271.>p,\274\276\341\230\010>\270\331\273\276f\266\255\275\nwQ\275\253\223\031=\224\304\365>f\3270\276\036\326\031=\002K\321>I\001\250\275\r\302E\275\356b\206=\217\250\361=08(>?\237#\276\307\244\025>W\017\271\275qI`\276%4\001\276y\204\313\275EX$>J<A>\006p\277=\246\213\231=.[\001>\"9t>\357A\266>v\264\366\275\203\336\235\276\371\253\252\274\'\211\"\276\244k\222\275p\224N\2759\233\n\275\355\326`>\300\211\225\276\363\202\030>\250HY<B\363\244\273\021G\212\276\tt\316\276t\302/\276(\340\274\276`\364\005>\201\377\022\275o\240\331\275p.\225>O>\201\275\306\235\222>eG.\275\333\336\323=\243U\351\274\306\035\347\276\335\344H>x\345\267\275\317\274\032\276&j\355>\334\n\002>jF\214\276\"\t9=\2317t\276\337x\025<ho\231>\230\325\243\276=\265\262=\275M\255\276\323/\002\276\177\006N\275\264\357\016=\0217\277>\277\363%>(\364\337:A\255\216>\227lC>M&u>\002\206\345\275\002\300\356=LR\304=\371\266W\275\372\r\000?\033\310\325=>\307\023\276\007\306a\274\322-\303\276\214\002\017>\036\373\006\275\324\201\253=(\255*>\361Q\325\275;\363\235>\371\247\236>\334\024/>%\036\360\275\356R\036<mX\377=\0255\310\276\23026\276\366\014\027\275\253\2214\276q\326+\276\016e\257=\260I\375\275@\346\224\274\300u\206\276N\216+\276\261\232\215=\301H\217\276\375\345]>+;<=\235D\346\2758\305\267>\300\016\r>7Z;>\264\004b\275%\215\222>Y9?\276\303\324\303\276\331:\324\275d\017\206>\355\356(<\247\216\031>\016\037\320<.+\241\276C\242\023\276\346>A\275\234\317\311=\361\305\360=\273\3415\275\316\256z\276\036a9\276\234\303\027\276\250\362p\276\332\030\201\275sQ\341>\343\350A=\340uR=\233?\245>\001\302u>\315\001e\276 \231\000\276\250\352Y>n\026\243\276/\226\200\276\263\307\033?[\361\226>\245\020\262>\225\013\241\275&\005\353\276!\217E\276\247\305\326\275P(K>\257-\204\276\334\362C\276o\212 >\027\207\302>\025\204\324\274\300\253\321\276\324>\211=\033\313\016>\264t\375\276\371X2>\251^\272\274\252\354\271<\362\247)\276\025\025\303=Va\240\275\324DJ\276x\372\244\276\253\262S\276\272\206\'=\r8\263\276O\216\250><TJ\276\200\334\206=\035HP>\367\007->3\304\230>\016=\231;\203e\266>5\214\n\276\212b\356\276\327d\275\275\343\000\n>\302\300\t>\020\271!>,\336\236\275\335\262\250\276\230d\252\276\334\256\252<\352\277%\275\330\\\010\276\273\252\'\275.\276\022>\363\025P\276\317q\312\275\370\246\227\276\231@\220\275 -\321>\314v.\276r\240\242\273\372\004\241>\214~\200>r;\260\275\013}\026\276\214\266\202>\300Y->t4\217\276\365\242\020?M|\010>\213,J\276%\325g\276\031\217\325\276Ww\032>\230\2209>\210f\341=\n_+=\305\310\002>r\370\020>\342\267\313>\310\000/\276_\235s\276\344\210\222\275\231\033\'\276iO\360\276\225y\337<\014\376\365\272\240\262\212>\337\200\\\276B~\005>\274\336\006=\337\214\031\275q\243\233\276\351HG\276\213\276P\276iC\221\276oN\036>7\220\365\275\037\215\352\275\212\223\237>\n\016\032>\220u\216>b\320\007\276\2432\251>\016\252\233\275\277\034\343\276\334\212\027\275.Qp=\351\374%\276e\001*>j\375,>\230\320\206\276\262c{\276\330,3\276P\233\262=\230\312\303<4\\\355\274\355\033\000>\271\276N\276.\230\372\275\350\212\215\276\374\021 \275\276T{\275^\363\n>(\361\354\275\202{\232>\306v,>\177\003n>\331\202*\276\2460\323=\330e\001>_I\202< _<=\367\205,=9Z\027\276F\222\344\275\240\306d\275\317\303\004>\264\316\023=\337\377\276\275\344\327K>\375\010A\275~\357\017>k\224\204=\366\304,>\351\3279>\244\030<\275b]\320=\254@\222\276\327P;\276\235\320\217>\021\\$\276e\276\311\275\301\220\370=x\366\332\275\374\247\371\275\375?\254\276R&\013=^_v=\212\232\227\276&fg=\350\264\271=El\037\276\205\325\312>E\300b>\016XZ>\335~4\276\337\247\331>\322\313\201\276\350|\226\275X\351\205\276\214 \313>\307\345\206;\025\211\313\275\357\243\264=,l\270\273\260\201,\276\'\257e=\230\352j>\013X\250<^1\345=\333\007F\276$\322\240<\255\205\017\276\213]\301\276n\334\231\276?\256\246\275\201o+=Gi\320\275\021\270\263>\270?t>\303\336?\276d(V\276\235Zp>\275\232\214\276\027\321$\276\037@\350=.\347z>\261h\235>\210\365?\276\235\271\257\275\177\243A\276Q+`\275\010\242\320\274N\003H\276\377\352\024\276\304\303\244\274\325)j=\004\373\305:K\3050\275\036\304!\273\372d\001>\025\331\324\276\2519\017>\014K\306>\177\307\355\274n\247\223\275>,\344=\222\372\221\275\'\332\236\276-\337\332\276\312@\233=.\tU=\263w\271\276\356\006\032>\313c\000\276:l\203\273\201\035\221>\270\034\222>R\273\256>c\005\032\276c:\023?^\\\204\276\324\347\271\275\316G\267\276\245\237\252>U\317\007>\030\372@\276D\016y<\'\r\037=\"G\274\276\361\323\034>3\310\004>\200o\177\276\206\3011>\313\016\t>\240UU=\340&\301\275\032s\001\277\225s\304\276\010k\205\275T\016\036\276\332Y\r\276\246c\260>\340!l>\t\0012\275\356\376X\276,\334\206>\210X->\361$8\276\303\177\313=\350\244\263=\014\275V\276-4\234\276\247\305|\275\243I\001>\211\0216>\025\203\267\275\376<\271=zV\355=a\311\271\273\005\027\261=r\r\376\275\336\035\336=zo\372\275\221\020\034\276\365\256\306\276\363\323\265\273\220\323\274>\364\250\024>#*\374\275\340^\t>!\035\233<\233\261\030\276*\016\314\276JR\211=\20281\276\345(\230\276\357\216\256\272\2775>\275\364\247\'\276i2\301>\327U\201>y\351\235>|<\203\276-P\003?L\202N\276\221\211\262\275\032|\232\276\377\247\201>\354J\026\276\322C\026\276\225\277s>x5\215=\215\337\213\276\264`,\275&=n>\207\010\253\275\033y\032>\"\'\257=\313\250\010=\241\202\004\2768\253\354\276f\341\245\276\243\256\214>\033\351\027>\361o%>\334K\310=\332\361>\276\202\270\200>\265\300\026>~\261Y\276\303\020\344=P\237\034>\010L|;\363\253#\276\332\230\020\276\274\010P>}\2241\275)\205\316=\31377\275\335\255\221=[dN>\325\201\255\275\365\033\215>\026v\270=Ad7>\363\243\243\275L\234\230=j\206\372=Z#>>\207@=\276\374!\261\276\341~F\276\356}\337\275\221\242\342=\301E\275\275\222\301E>\024\253\303=19w\276\226\342\225=\377\024\314\275\341\272\206<B9\370=\364[\226\274\277h\222\273\005\312B\276\004u\204\275_\017/>y\022\301\276\006Q[=y\261=\276\267\335%>|\203%\276\023\022\251<Jy\252>\307?\244\275\337\260\"\276\250\310\201>6O\312\275\001\001\002\276\022\005\231>\014j\222\276\205\317|\276r\177j\276\227\036\352\275\031\"\273>|\014\256>\266\004\261>@[\376<P\207v>\004\037\306=\310\234o\276\220eW\276\027\217M>}\343n\2765\033\226\276y+\200\274\001\255E<\023tV\275R9\267>\314\3535>\372\244J\275f\342q\276\027\323\300\275\351\363D>c\231_\276\353\335\025\276\333\337\366=pu\027>\250n\234\274\271i\300\2766\311\026>$\252\014>\245\013w>5\230\023>\256N\330\276\255\332h\274su\312\275I\374\356=_\214B\275\320A%=\313L\002>\322\342\245\2769\275*=o\262\366\275\303C\317=;/\350\275\202)G>\023pm\276\365\031l\276\rX\002\275m/\217>\354\016\366\276\346\375>>\226bq\276\014\272\235>F\314\272\276\270F\016>\306\215\331>{\257n\276\n\367\022\276h>\n>pS1\275\210?\236\276\177\335\275==j\271\276\200\005$>\027I\215\276!\003\216\275\310\315\337>5\213\323>\340\366\236>\233\032@\276\370\227*>C\030\313=\025\3109\276\256\270\222\275\331?\037>\263\022,\276=II>1\360f\275\353\227G;\225\326@\276\033\037A\276\013\371\212;5\244\374\274\010\231\320=\277Hm>\337G\312=\021;\240=\237>F>\321\367\315=\316\254:>\207\246\'\276\366\201P\276\203\370\007\272\213R+\276\302ki>?\r\240\273\014\221\275\276B\251i>m\035\032\276\210\036\021>3\032t=c\242<>Y\362\352=\310\346\233\276\361\363O\276\372\034\263\275@\014\200\275N\351+\275\347r\241\272\237\371\306\275\214\330_\276/\320\270\274<p\357=\314\360\341\276<\355f>T\361b\276\210e\256>P\330\316\276\020\031\"\276W\334\313>h\350\240\272\270\326\221\275\032\246H>\2259i\276j\351(\276\022\374k>\nQ\242\276\235u\031>{L\205\276\005l\312\275\303\340\316>\310\375\310>\274o\036=S\'O>\017+ >+\210\271\276iP4>\231\013\211>\026\277W\2754\241\030\276\257#\236=\315\245\310=\362\317\372>VW\263=O`\331\275\232\0000>\351o\314\276\250\252\355<\365\227\345\275\271\323\324=!\356\344=O\207\037\276\321m\271=1\333\233\2753\2477>ny\267\271\320\353\340<\331s\034>\255m\325\275\353\t\004\276h\245\335\276\212\2446\276P\300->\234\352n\274\010\376\201\275n(\221>\236|\277>H\264\021>l\234\266=D\021\253>\307\273\214;\n\210\232<\252\002\310<lf-\276\300c\243<\340\327\251\276\353\025\016>\260\235{\276\246,\360=ts\005\274\0172\365\274\'J\275<\005N-=\373\345a\276\352\021\032\276\002\n\013\2767L\014\2753\302c<\021F\324\275_\305\003\276-\013\214>\003\320\222\276\242\217\021>Y\007U\275\t\251\203>1M\276>\365m&=\202\307\206=P\231a>\237m\331\276$\316R>b\302q\276T\2460\275\204\262\333\275\373\314\253\276\304 \274\275X>\007?\030H\202>H\026\340>T\223\362=\270\262\337\276\262\340\250\276]1\030\276\354NS>\n\277\253\276\305\004T\276d\224\361\275\t$\255\275\231uS\275\230\322\215\276\205)\256=} %>W\253\337\275\264l\207>1\034\356\276g\rG<3\262b>\365Q\257;Oq\356\273\314\202\354=\217\234\315>67\'>9O\037=1N\271>U\'\227=Y\324~\276\034\000v>\001\225\320\276\221r\316<\254&\245\276\254\311b>\241\244\207\276\204\235y>\252\020\242\273O\014\257<?\370\036\276\221\211&>cR\210\276hX\216\276\266\034i\275/*P\276C\'\303=mV\207\276\177\n\323\276\024\\\230>\230=4>\257\226,>I^x\273m\360\211>\302\252\321>\377\240M=R\3255\276\023\321\032>\230\361\311\276G\246y>i\200\323\275\2425\233\275J\321\017\275?|Q>V7\024\276~j\001?\250g\265=i\027\024\276\023`v\275\323\360\316\276|\253\031=\244\010g>\313\013\347=\017\356\241\274}\262B>\353?\006\276b#\317\274\000\230`\276\345\371\357\275\030\342\203\275\311\2460\276\2320\316\275\004\330\371=b\215\334\276~\314\216>\270\266\017>N\315,=\264]\374=#\341\207>\312\227\301>\357\t\036>\023\372i\276\357\013\303>A\361\311\275\305k1\276\250\354\021=\'`\212\276\034\215U<\3744\235\276}f{=*Y\200\276\026\240\232>c=7\274\366\004\254=o\317q\276\262\223\036\276\255lv\276\235\2015:\225\021S<\322\275\374\275\302\317\372\275;\223\354\275\373\306w\276/\033\226>\267\226G>\316\237\023>\311pf\274\024\303\204>\250\367\330>\263\004\274\276\246\221%>\2460\270\275\022\275<\275\362\367\035>\371\363r>\304[\037\276N\254\034=/\337\312=/\273\030>\331X*\275\'\323\036=}t\375\275De\241\274,\266@<\004\254\266=vN\017\275*\310\024\276\251SX>\270p\271\275\233h\234\275F\354\202\276\204U.>v+\256>\302-q\275\247\277\004>\334|\264\275HC.\276\025\340Q>\n\375.\276o\217\006>MZ\343=\032 \331\275t1\260\274\271\335\262\275\3624\260>\252\352\227=\321\245\224;t0\254\275\325\035\317=\213\366\325\275\006\311^>\245\313G>\r\265h\274f|\010\276\016E\235>\005C8\276\333MW>.\037\251\276\017%\255>\351\272\260<\261\311\004\277\247\356)=\233\021\021>\333\\\246\275=\241\022>\365\347=>\327!?\276!\235\343>U\305q\276\260\030\275>\272r\025\276u,\213\276\257xu\276S1\350\276\200x==\376\260\210\275\213-\266\275qgW>\265\371b\276P\0228\276n\021\t>\374\312\231\276\304\352\251\274k\2350\275\'\024d>\376?\302>\346@\264\275\350\260\265<\333\304\200\276n\202\273\275\032{\276\275a\025P\276\201`\035\276N\226\226\276\314\205\257\276\236\314\370\274\'\206\005>\002\004\213\274W\351\026>\002\256\004\276~\035C>\010\360\221>\373CC\275`HO>+\253\341=C*{\275\373\022P\276\304\315\332\275\216\223\343>\337\2715=\220@\277<\221\351\376\274\231\233\013\276\215\306\240=\r\236\037=\270nv>\217)\330<lX\273\275d\215\313>\365\371\377\2758&\212>H\024\314\276\334\036o>\247\376\024>\340\340+\277Xa<\275\245\232\213>n\234\207\276I\326\201>\207\023\224=O\302\372\276\364\217\007?9\344%>J\367\345>\023\371\323\275\262\013\261\276\302\300\225\276F\210\316\276\350\2252\276\331\370\340\275\200\003}\275\251\300i>c\324\250\275\303\034D\276\201^>>\331\330E>\250\323\200\275{x\034\275\337iv=\014\3401\276\236\273m\276\037\032\020=\347\263\254=\021\226f>\363\316$\276\363\307\303=\330\035;>\262L\216\276\210\367\216\276t.6\276gk\210>]\342\025\276U\367$\276\026>\354\275\206rP=bB\214>\207\004\023>\261\355\371=\347N\010>~AD=\356f-\275\262\013\324\275\240\202\321>D\235O\276Q\324W=P\221;\276\201ct\275\242\221\322\275\205F\034>:<X>-\304\310<.\010\\\276\350l\272>\263Kv\275\244\217y>EP\251\276\215\200\022>\033\376\035\276O\273\034\277\020\002R>V\221\233>\\\0323\276\027b\017=\346YD>\376Q\237\276u\365\370>\216r\031>N\216\314>\204\264\000\276\017\310\240\276\214mn\276\276ck\275\324r\004>2gS<Xw~\272\300cu\276\206\215f>K\254\033>\267UZ\276\271\316\331=\3712m>\005\030\304\276UXf\276\347\201/\276\273\260N>{\203j>\315\243\375=6\311/\275\254?\252\275\004\275E>\360\220\200\275\2227\n>\305\202:\272\016c$>7\354<>Y\342$=\357\221\242=IM\213>\022\nF\276\223\204\212\275z\364\"\27645%\275\335\221#>q\232\322\275\272\013\357=\004\213\277=VB\326\275\322m}=\252\2326=R\006\266\275V`\321=\354\207\'\2758\211\351\275\345\007D\276\260\232\341\275\214n\214=>o\256\2768X\214\274\255\275\353=Qk\237=6:\014\276s0\243;\360\270\212>\202\340\000;J@\261\273\021Z\247>\022b\r\275jL\201\2747j\246>\376\033\232\276\210\020[\276SX&\276\034\330\020\276\323\342v>Y\235:=*+p\275\231\301\001=N\220\233=\0318E\275\340|\254\276\211CE\276\252sj>\026\232\220\276A3\220\276\276i\327=Rv\372\276\031\246(\276\226\364\231>\261!M>\356g\236>\355\277N\276\311\357\312\275\256\311E\272\373\224L\276\222<\373\275\374d\367\274~\3652\274\021\356\034\274\0141E\275[\310\352=6\213\327=\3727\321>UJ\253=\234\003\324\275+\372\206\275\246\023/;z\212\021>\367\204\224\275\3351\310\274`R+>\275\371\023\276\275\310I=m\004\234=q\373\030\275%G\325\275\370|1>\240>\273\276\226\265\177\276\2613\023\276\340\t<>:\334\370\276UU\355=k\240\035>\220Kp>\\\231\251\276\343M\377=?\223\267>@\251 \276\235f\223=\234w}>\273%+=\000r;\276WH\026>\000\247\310\276>l\021>\177n:\276I\023\327\275\206\331\255>m\002\312=\324^P\275\232\374)\2760\006\200<n\237\340\274*I\216\276\361\337;\275PG<>\366\217b\276\004\337/>9\232\213=\315\002\350\276\037_\215\276\331\335Y\276V0\034=\020\204\230>\037\340\324=\365\277Z>\n5\225\275\333\227\257=\033 :>\360g\322\274\326\207\017=\276(\t\276\351@\333=\201\306\263\274\034\3701\276\300\310\277>\031\274\205\275\217x\214\275\200\206\317=\347\266M\275%v\034>\333o2<\273\356\363=/\364\030>$H\r\276\336P2\2766Z\232=81.\276Ny\005\275n\007e\274!>d\276jPk\276\002\210\364\275\002\232\021=\034:\340\276\365=\023>\274x\022>\213\021\203>\331Y\263\276E\002\036\276q\306\247>\211\205\022=\362G\373=\275\353\231>\316\375\010\276j\\W\275/-\215>1.\265\276\350\274\345=\320Q/\276(V\031\276$\025\235>\376\306\264=\227E\206\276\256\260/>,gd8\300l\316\276Z\377\020\276\n\010\205>U.\311=\304 >\276\254N\350=$lx>7{\240\276\252\372\033\276=\305\"\276\213\203J>\002\221\">{\254\325=\334\263\247\275\020\375\306\275\303\000\027>\347\321\317\275\022\272\321\274G\177R\276\225\tD>\225\031\216>\360\027y<\000.\354=P\376~>\006Y>\276\364\320\240\275\245\374<\276\275l8>\373w\302=vw\320\275_\002S>R\376\272>\022^\307=\022W\232=\027I\353>\211y\004\276\260\023G=\366]\205\274X^\222\276m9\004\276\214\215\302\276t\241k=rW\227\276\325\2138=\301j\260>j\031g=\234\272r<\212\256\204<g\375?\274\204/B\275\303b\001=\224kq>E\313P=\247\006\213;#\241\004>\310\200\277\274\306\364\202\276\203\'\243=-Y\373\275Y\217z>\014HZ=\211M\251\276\264\027`=mdG=^\362\003\277\271r5\276\014*J\276V\343\020>\213\242K\276\210\236\217\276\211\255\311=\336=\320\276\244\3647\275VX\265>2\\0>\352\365e>\262`u\276\016\251\373\275\331]\017\275_>\212\276g\007\027\276Svy\276\214]\222\276b\276*\274,\332\200=\237Z\233=}\327\010>\327\350\260>\361\277\027>\347i\223\275\226\206\254\275\031\345\205>\251\354\270=\211.x\275\343\346T=\346\350\340>ui\030>\364U8=\236\032\n?P\375\303\275(\352>\276\351\377M>\310?\r\277\262M\034\276\357$\343\276+\372\030>\331q\274\276R~3>\3672\337>\262\354\013>cv#\276\373\006\014>X/8\275\306\024;\276\004).>d\243\360=\332\315\031>\3274\024\2766\336\350\275\325\251\340\274l\274\035>Y8\000>\273\310\251\275UG\227>\253w\230=W\t\222\276\257\252*\276\354\207\002\274*\273\357\276\354\376\360\275\377Nf\275\230\310\325=\274\247\003\2768/a>\302\274A=\017\177\273\276z18\2762\271E\276\331\255C;>?c>\032*\276=\377\216s>\235\303\332\275\311\361\007=o`X>\304>o\276f!^\276[\016!\276\310\203P>?P\201\275T\2131\276=M\246>\002\373\350;\r\322b\275\232\350\327=\010\3547>\272e\344=\022\3477=xNK>o\205\320>\300\235\005>\210\222L\276\220\270\004?k\201q\276wq\343\275\n)\254;B+\317\276m\326\030\276\321\363\322\276)y\270:l;\255\276\330\030a>\225+\314>X\2518>S1^\276\003A%\276\0236\003\275\341\244]=\177\365^>J\247;>\335\377j\275d \016\274au(=\314\231\303\274\316v\035>\304\002\317=b\324\340\275\313\363\216>/\331\301=\342?\263\276\035\n\016>\024Y\000\276\227W\026\276)D\322\275\024\277a>0l\362;wK\326\272Pa\301=\350Jj>.\376\305\276<\203\360\275\002\022\"\276\335\245.=\267\350\206>{\342\004>\341a\020\275\200\343;\276xQC>d\346\221\275\314\007\021\276\240\007\200\276~\333,>QF\317>\265a<\275\211\377\256=\022e2>\256\354C\276\355\204v>\373\324\376\275\024\201\365=\356\253\035><M\334\275\210.\023\274\336xJ\273/\223>>PG\210=\340\334\t>\014)\t\276-\213\244=\377\245\332\275\226J\260=\354\241\37096A\267\275\216\361\352\275\026n\007>\357\317\024\276\256\340\246>C\330\341\275\322\235j>\362\341+<\340sd\276p7g=\341Q\344=\332\322\035>\3251\374=\340\300\">B\240\\=\363\000\361=\253\003S\276\333\215V>:\304\034\276}F\017\276\361\267\207\276\341U\370\276MW-=D\210\345\275F\300p\276\315Z\340\275.\357F\276\334\217\246<\313\032,=:\220\223\276y\325\317=\217G\000\277\305\2040<\274\261\240>Xnb;\202^\267>\361|I\276\260\316\304\275\226\307%\276\322\313H\276\373\035\006\276\004\263\272\276\025\257\312\276\3347x\273s\230y>!f\2709\017\375\345=\355\277m>\247\034\350=\316\263\255>\344\301\243\2759\221\\>#9\004>F\243\234\275\272\2202\276\332\331\332<\0356\233>;5`=\342\221N>C\230\343\275\377\376\002\276\204\255\241=}\347\355\275\320g\177<\200\"\357\275\234Ts\275 t+>\362%\245\275&\343\350>\302\001\n\276\377\275\377=\330\357\010>E~\263\276NY.\275\\\333\220>9!\265<\236b|>\360\205R=\263\222R\276\325&/>5>\021>\213x\231>rJ\362\275B\021+\276\346\374\244\276\306G\326\276g\321 \276X\266\030\276\240zE\276\217\210\213\275_\262<\275P5\205;\323,\277=\334\027->)\272\201=\r@\350\276\213g\372\275\326IS\276\313\344\006\276\324n\256>\361F\330=\320wU>T\016\\\276\350\364\273=\217P.>\263\262\250\276x\205\251\276\225\353\005\276\001\325\274>\234\034\365\275\035\300.\276\317\303b>\023Y\330\274q7\242>\007\027\024=\344\224\014>\030\326\014>l\266\005<\266\016\237\274t\037\277<\027\013\210>l_.\276\274\302H>\241,p\276,\277Q\275T_\302\275\030\255\373;8\351\302;\252\352\322\275\376`2\276\3360 >\002\234\001\275\026l\320>\322\273\263\275\240Xy=L\257\026\276)\034\236\2767\272->;\221\231>\351\274\314=s\021%=\261\340&>[^1\275\301\307\022>[\333\341=\013\210\203>\235\232 \276\244M\022\276j\025\212\276"
    }
  }
}
name: "f-rcnn/conv1_1/conv1_1/conv1_1"
op: "VariableV2"
attr {
  key: "_class"
  value {
    list {
      s: "loc:@f-rcnn/conv1_1/conv1_1/conv1_1"
    }
  }
}
attr {
  key: "container"
  value {
    s: ""
  }
}
attr {
  key: "dtype"
  value {
    type: DT_FLOAT
  }
}
attr {
  key: "shape"
  value {
    shape {
      dim {
        size: 3
      }
      dim {
        size: 3
      }
      dim {
        size: 3
      }
      dim {
        size: 64
      }
    }
  }
}
attr {
  key: "shared_name"
  value {
    s: ""
  }
}
name: "f-rcnn/conv1_1/conv1_1/conv1_1/Assign"
op: "Assign"
input: "f-rcnn/conv1_1/conv1_1/conv1_1"
input: "f-rcnn/conv1_1/conv1_1/conv1_1/Initializer/Const"
attr {
  key: "T"
  value {
    type: DT_FLOAT
  }
}
attr {
  key: "_class"
  value {
    list {
      s: "loc:@f-rcnn/conv1_1/conv1_1/conv1_1"
    }
  }
}
attr {
  key: "use_locking"
  value {
    b: true
  }
}
attr {
  key: "validate_shape"
  value {
    b: true
  }
}
name: "f-rcnn/conv1_1/conv1_1/conv1_1/read"
op: "Identity"
input: "f-rcnn/conv1_1/conv1_1/conv1_1"
attr {
  key: "T"
  value {
    type: DT_FLOAT
  }
}
attr {
  key: "_class"
  value {
    list {
      s: "loc:@f-rcnn/conv1_1/conv1_1/conv1_1"
    }
  }
}
name: "f-rcnn/conv1_1/conv1_1/conv1_1Bias/Initializer/Const"
op: "Const"
attr {
  key: "_class"
  value {
    list {
      s: "loc:@f-rcnn/conv1_1/conv1_1/conv1_1Bias"
    }
  }
}
attr {
  key: "dtype"
  value {
    type: DT_FLOAT
  }
}
attr {
  key: "value"
  value {
    tensor {
      dtype: DT_FLOAT
      tensor_shape {
        dim {
          size: 64
        }
      }
      tensor_content: "\372\372;?mJ\277=\014\304\212=U\344b?\221\027\205>f\r*?\252\253\201\274%Z\246>,\236/?R\352\177=q\341\024?\246\320q>Pk2?\021.G>\335\306\370>65\344>S\347\002?\362\224U>\006Y\023?X\373\251>\220\345\377>\36266?\361\r\233>CQ5?\200S:=e\241>?\026\317\230>\373\327\366>\314\013Q?\027D ?&\355\300>/\031\004@\221\352E?^!\261>\331\363\034?P\223\'?\344\351\307>\2369\002?ok\206>\211`r>K?\243=\201\030\217?G\310\205>\205\250^?P\233\\>5\263G?\310\204\275>\344\271\365>,\340\334>\306\'\002?O\007l>\276~C?\207Y\265>ew\352>\221\271\356>\356\273\311=\374\271\302>\2336+?\005\223\315>\336\264g?\234\003\335>e\250\246?4\333\007?\304\330\372>"
    }
  }
}
name: "f-rcnn/conv1_1/conv1_1/conv1_1Bias"
op: "VariableV2"
attr {
  key: "_class"
  value {
    list {
      s: "loc:@f-rcnn/conv1_1/conv1_1/conv1_1Bias"
    }
  }
}
attr {
  key: "container"
  value {
    s: ""
  }
}
attr {
  key: "dtype"
  value {
    type: DT_FLOAT
  }
}
attr {
  key: "shape"
  value {
    shape {
      dim {
        size: 64
      }
    }
  }
}
attr {
  key: "shared_name"
  value {
    s: ""
  }
}
name: "f-rcnn/conv1_1/conv1_1/conv1_1Bias/Assign"
op: "Assign"
input: "f-rcnn/conv1_1/conv1_1/conv1_1Bias"
input: "f-rcnn/conv1_1/conv1_1/conv1_1Bias/Initializer/Const"
attr {
  key: "T"
  value {
    type: DT_FLOAT
  }
}
attr {
  key: "_class"
  value {
    list {
      s: "loc:@f-rcnn/conv1_1/conv1_1/conv1_1Bias"
    }
  }
}
attr {
  key: "use_locking"
  value {
    b: true
  }
}
attr {
  key: "validate_shape"
  value {
    b: true
  }
}
name: "f-rcnn/conv1_1/conv1_1/conv1_1Bias/read"
op: "Identity"
input: "f-rcnn/conv1_1/conv1_1/conv1_1Bias"
attr {
  key: "T"
  value {
    type: DT_FLOAT
  }
}
attr {
  key: "_class"
  value {
    list {
      s: "loc:@f-rcnn/conv1_1/conv1_1/conv1_1Bias"
    }
  }
}
name: "f-rcnn/conv1_1/Conv2D"
op: "Conv2D"
input: "Placeholder"
input: "f-rcnn/conv1_1/conv1_1/conv1_1/read"
attr {
  key: "T"
  value {
    type: DT_FLOAT
  }
}
attr {
  key: "data_format"
  value {
    s: "NHWC"
  }
}
attr {
  key: "dilations"
  value {
    list {
      i: 1
      i: 1
      i: 1
      i: 1
    }
  }
}
attr {
  key: "padding"
  value {
    s: "SAME"
  }
}
attr {
  key: "strides"
  value {
    list {
      i: 1
      i: 1
      i: 1
      i: 1
    }
  }
}
attr {
  key: "use_cudnn_on_gpu"
  value {
    b: true
  }
}
name: "f-rcnn/conv1_1/BiasAdd"
op: "BiasAdd"
input: "f-rcnn/conv1_1/Conv2D"
input: "f-rcnn/conv1_1/conv1_1/conv1_1Bias/read"
attr {
  key: "T"
  value {
    type: DT_FLOAT
  }
}
attr {
  key: "data_format"
  value {
    s: "NHWC"
  }
}
name: "f-rcnn/conv1_1/Relu"
op: "Relu"
input: "f-rcnn/conv1_1/BiasAdd"
attr {
  key: "T"
  value {
    type: DT_FLOAT
  }
}
name: "f-rcnn/conv1_2/conv1_2/conv1_2/Initializer/Const"
op: "Const"
attr {
  key: "_class"
  value {
    list {
      s: "loc:@f-rcnn/conv1_2/conv1_2/conv1_2"
    }
  }
}
attr {
  key: "dtype"
  value {
    type: DT_FLOAT
  }
}
attr {
  key: "value"
  value {
    tensor {
      dtype: DT_FLOAT
      tensor_shape {
        dim {
          size: 3
        }
        dim {
          size: 3
        }
        dim {
          size: 64
        }
        dim {
          size: 64
        }
      }
      tensor_content: "c5*>m \022>\265\303\203\273h\323J=\355\315\371\274\363\3031=m\023\202\275\337\026\221<\264\201u:\247\200\230=\306\257\341;$\031#<\213q\350=\221\n\302;\231\010\312<[\206\'<\201%\375<@\345\226\274\226\007\247<\331u0=\212b\252=c\345\354=\337\325U<jf\260;\247\210!\274\253\364\276\274/\362\207=\360\224\025\2727\335\247\275\321\035|\275z\202\023\275E\311\373\274\250\360\273\274\220\343\347<Py/\275\356\005f=\'\334\335\274>\2743=H\0133\272\236\311\205\273\210\227\241=-\264\314<\037\325\211\274\367%\212\275\t\325\210<\351\301\'=b\277\017=\221\034\264\275\336\276l=\333\353\334<>\364\222\275\031e\237\274V\203\334\272st\006=Q~B\275\027\002\375\274\226\276\225=\224o\252<C\266\354=\216\321\207\274^u\013=\330x}=n\226\216\274\265I\366\274\303%\033<\350\357};\010:P=\346\212\236<\263\376\231=\244\203?\273%\320\330;\001.\014=r\027\242\274\030V\326;\235f\202\273\365\357\374\273*.\321;\014Q\354;\377e@\274\264\244\244<\004\260\223\274z\254\311:8&K\275\237\263g;i\262\217\2725ph;01\001\273\307\361\204\274k\341\232=\363,R;K\031\030<\n\254\027>\r6\243:\256\371&\273%\215\300\273\214\252\260\274+C\346:\334h\3428<\005\030<\213Vk: BI\2720o\016\273\251\016\023\274\267\001>\273%\312X\272\276\240M<)\200\235;\226 \326\272q\350\341;L\221g\275/\304\246<\314\300\211<\315\n\310\273e\377\321\274-\263\345\271\003\"\276\273 \361T=\\\373\030<T\346\216<\264a\360\273\006]\257:\367\003\005\274nM\000<\2176|\271r\010\007\274\377\270\343\274v\237\340:\357\266\337;\300\222\201=\261c\256<)\351\205\274\355\364><\2651\266<\374\001\361;\246C\353\274ID\335;7@\213<\243V\251\272\251\233\005\275\373\333\205\273$\223\231<\255\325\255<t\242\201\273\\\2211<\322k\223<\344\n\210\273\213T\234\274\272\315\302<\330\020\201<\306.\322<\222\301_<\r*\352\272M\\\003\273H=\270<c\261c\273\317\366T<6b\202\275\374qE\275\337?\241\274P\216\277<i\267\374\274\377\014\223\274\316\314\372:\315\240\005=1\026\272\272N\234\223\274\013\370\222\274w\tQ\271\004\350V\274RVO<\276T\314\273\367\345\300\274\025k2<;\3121<\266\372\020=,\373r\274\023t\267<\027\274:<\204\225\204;\345z\241\274\023\344\\\274\376S\251<\260\033\023\274\304(\n\275~\220\017;ao\013\275\322\032\201=^\271C=>L\273<}\263f:\246\354\332;\251\376\270\272\271\372f=\356x+>\014\272f<\340Z\036=\223\335\204\274\303\032F<\232)\325\274\267\236b<]\364{\274\003\026\211=\302\207\'=@\333\017\275\364w\273<\020+f\275\275\253\357<\236?[:K\017\026<\236\263\020\275\252\303\200;s\2331\275\353+\302=\372h\341<\177kD;N\342\240;a!\020\272\227\240N\273\004\335\270=\210b\254;\"\274\223\274da\350;r\001n=*R\032\275we\352<W\034\260=\230\1772\275i\374\261\2759\235\325<\352\252V=\031\211\245<K\323\342<i)\355=+\373\273\273\337\220Y<X\017:\275\247\226\022\275]\313\230<,\304\024;F\344\212\275Z\264\265<\rb\225<\321\301\232\2751\327\014\271\226\3056:\024a\254<\317<\346\274\000>\375=\020a\255=\316\325\241=A&_\274\\5\232\275\003\256C<0![=\277\3313\275\r\036\242\274\365.\320<K\347\005<\267\006\303\273T\241\234;,\024\177\274\t\354c\275\211\204\3649\252\277e\273\270\253\026=\201H\277<\\\235\223\275u\025\013=\271\365P\275WU\271\273\202i\356\273K+\030;\257\220\211<\022\210J\275H\021\010=\252IB\271s\344\301=>\213\347\274]\245o<1\003\252<\001\236f\274\310\236\233<<K\351=`\350N\274g\263\000\274S\017\240<^\263?:/1S\274\'\315\213=\225\3657<\312\317L\275LB\375<Z\235\302<\254\022\373\274\201C\247\274!6\025<\361s\255\273\235\025\247\274^Cx\274J\240W\275\031\273\341\274\034\005\010=O\330\235=\353\247t;-\355Z=\273\302b<\261\024d\275J?o\274b\000\013<t\366\264<A\363\005\274\303>f=I\3016=M\253\245\274\350|\005<\343\340\226<\352r\213<b\311\273<\255\250\n=\261\2546\274\213u\347\2737\002)=\204J\376=\026\341B\275\362\326^=v\275\242<\302\223<<l\303\301\274o\226\"\275\314\304E<Fy\002<,w$<\225\332\000\272_c\235;\256\213\177\274\2278\020\275 \246\026\275O\nr<\332\314\305=&\322\321<\371En:\305\327\330\273\'\306\244\274\2474S\274&w\016=W\337\373\273\376\017Q\274\246\244\265=\027\344%=\026\250\327\273\266\017\257;YW\263\274?\n\206<\360\200\001=Q\3703=7\0100<vs\021\274C\204/=\302\227\220<\307\322\020=P\201\243<\306A\240\273t\217\221=\263\221\r<\354\\O\274v\263\323\274\355\320\273\273\304\345e\271\2205_\274\206qM\275~$<\273\3204Y=\210\371.>\202\351\251\274\343f\026=*\\\3279\225=\316\273\326]D;>~\306\274\306\347\003;\213\201\206\275\224\023\003<od\252\273\255\241\'\273\035\246%\274\265`&=\245\207\205\273l\035\234<\014\363F\274\271\230}=|\212\314\274g\262\362;\350\344i<Xq\237\274\235\323\\<{\025\365\273\216\262\016\274\274\303\205=g\353G\274:^Y<\001\305%<s\312\224=\351Lz\274P\301\0279\372m\035\275\201\367\252;\3533\013<\265\216\373\273`\003E<1\220\033\274\316\305\t\275xw~;\202\tW\275\236J\353\274\331\304!<\014\332\"<f9\001\275\000\"\254\273\273&j=|\324\006\2730\327\263\273|\005\312<\3179\337\273G6\324;A \260<,\305\215;\376W+\273U\220%\273u{B<\323\277(\274\345g\224<@\363\"\274\204Tj=\356\t1;T\356Y=U\034Z:\237q/\274\300\277\247\274\206v\220\274L\274\013\274\323\315+\275\310\027\324;\270\216\325<\355\253\006;\302\365\031<\346\331\230;\307!\254;\302\014\206\274\355\035\013\275\\t\035=4\273\224\274\370\356\027<\301\335G\274\214I>\275\257\355&;O\374\336\2738Q\215<\243\270\200<\363\377\370<\375\334\234<\374Ff\275\234\337$\275\003WK<\360.\261;G\370);\037\235P\275\270AE<\3620#\275)s&=$\246\"\275\231 #<NL\254<4\241I\274\267%\306\273g=j=A\300\315\274\301\245?<1\320h=\327\263\207\274\316\330\213\274\201vv=Zu\211<b\202\037\275\377\030\314\274Q\261\251<\234(N\273|\206>;\262\351\241<j\005*=\311\306\230\274\305>\266;\230\225\340\274oY\313\274\004?+=\322I\372<u\304C<a\216\307<r\306\323<\342\251)\275\240\316\224\274\350\0202\274l_x:\204%\341;\361\230O=\032\312\253<\223\375\353<7j\020\275\252\346j\275\312\310\212<k\227\365<\347\010\330<=\323 \274v\200S\274\364[\025\273\210\263i=\216\336\036\275P\255\234<\r\217\304<g\016\020<cs\022\275.D\034\275\215\313D<I0\203;c\227\021=7\254\307;\004\355N<\304\316\213\273\343\265\037\275,\032\312\274Xz%<g\256\177>\265*\214<\360\363%\2743\320\260\271\367\254\265\274\252\250\030<:\023{\275\322Q\236\272\256\275\003;H\246\226\2745r\270<\025\n\316\273$u\262;\333k\265<-\346\306;\231\366*<\355\217\255<67D;*Yp\273.\314\224<\317\2002;\034W\276<8\0266\272\326\351\000<\211s\342\273\247\3007<\252\241Y\273IM\217=]-\376\271\374\347\004:\\N\027\274\3104\006\275*\200\237\272\036V\017<\036\220\r>u\367\032\274\275#?=!d9\273{\363\306\273\214\233U;42:\274q\231\270\273o\243\205\275\371\023\276=\221\216\321\273?\276i\273\320\277%\275]8\032<M\273%=\377B\216\273u\'\341<:\235\252<T\2515<\203$\316;gm\227<\n\364\363\274\317\252\241<\004\\\"\274\267\217\t\2758i\301<t\266m\274\256\270\242\272\224\342\346\273H\313C=iU!\274*`[\274\351u8\275\tM\337\274\313K\274;\377=K\2741h*=&Q\341\273\233\262Q\275\374\227\230=\322J\352\272\212\352\305\272\002^\021\273\013\377\004\274\303,~\274\303\327\221\2749AG=\224\302\000\275\215\334\002\273\344\321\223<\241)A\274\026\376\324;OT(<<\3260;y\212\217<\277\357;<\324\360\2557\363\021#\275+Eg<\n\014H=\'\307\245;\n\261\363\274\264\366H=\037^e<p\227p=\265\256\001\274\375I\005<Zu\266\274\342\276c\275\316\346\215\273\301f\364\273F\315\323<L8\332\274\206\214\026\274\005)#\274\357\007\022\274\023\272:>\250\273\213=\203\257\025\274\375*\301<\225\210\005\275\364\250Y\2757\tb\275\273\303k<\252\311!=\350X\241=\374\304\267\275cu\307<\315\230@<\272t\033\274I^Y\273\277\202\022<\346\377E=\335RV\275u\177}<\240;@=\343\227W>\200\2442=\220\375\004=\227\336\235;\231lL\274\326`Y;?\2332>\217\334\030<\346\215\244\275?Vq\275\307\377*\2754V\375\274\211/:=\246\267R<\366\021\264\275\275\366\314=F\214}\273Z/\252\274\350\'!\275\032\337\346\272-\311\203;\023D\031\274]\017\353\274x\356\253\275\337Y\313\274\323\341\214<\226\373\300=\345I\231\275\212-\363<\222V\3169\3628\220\275\342\244k\274\344\301\230; \331\265=k\037Q\275}%:<\022:\005>^\305\322\274\'d\330=\254\221\265=+\257\370<\251\237\006=q\335k=\264\313\243\274\335\270\255<\305\262\217<`\026$\274\204E5=j\024U;6\2248\275\035\372\250\267\212[\370<\333w\260<\2404\202<5=5\275\303\313\276;Y\272\023\2758\207(\274\205\025e\272]{8=S(\005<\300\3133\275\232\346\037\275*\345A\2735\343\212=\317\300\243\274?Z4<\010?C;e\032\377<\177l\231\271@D\217=\000\235S<\361\022\273\273\t\203\223;j\rB\2747\302x\274m\3673=\303\322\030<\333\221\035\275;\337\204<\215PO<\211\337\260\274c\t\203:z-F\272\356\033\307\272\223x\\\274\330\022\303;\345\367\013\275\034\313\220\274(\331\326\274.\205A=\037\231N\273\317Y\357<\325\322\257<\276\270\031\275R\016\212\274ni\337\274\013D\262<\254B\007\273j\213\362<S\177\032=\371\217\201\274\317@\211;\363D3<\017\333w=\025\255V\274\207&\275<@\204\304\273\rY%;}\304\314\273<WQ\274o\364(>U\241\000=\325t5<N\206\262<\347\373\330=o\363\005\275\220x\246;\035m-\274\211\227\327\2737\211\004=\216&0<\363\377t\273&d,>\373\333\361\274\225\255\355\2738\263\360\274u\361\2069\023\321O;-U\253<\214\327\'\274(\356\215;\225>\376=\022\372\206<\212\246\332<\344_\200=~\217\002:$\221\031\274D3\270\273L\005\320:\301\3778\273\204\225\206;\036\222S\274\021\001\377\272\227\263\237\273!27\274T\023\221;\214\371\234\274<\340\245\274\257hD<\374\337\344\273\203\201\t\274\257\026\306<\201\325\036\275\305\252d<\266Y9<\t1\n\274\263&\275=Q\373\254:\000!_;\nY\231\275@\256\017=t\300\325<\001\314\004\274+\366\267<rWN\274\357\363\233<w(\215<\340\024Q>\340\217\340\274\376BG;\310\300w:\236)?<\242\rK<\344e\310<oi\317<\237\377\365<V\247\031=r\254\200\274Do\305<\310I%<6\241\265\274\230\3633\274O\027\346\273\313Ko\272\356mI=\252\350\202\274\372\277\303<\031zp;9J =\022\024)\275\363L\216<\013{\021\275l\001\212;m\341\"<$\273I\274\016Yj=\370\014\255\273\341R\026\275\302\244\231=\315:E\275\267\211,\275$\374\321\273\006\2633\274\002V$\275ig\310\274\230/\026=\363@\242</\034\207\273\303l\226:>T<\273\001l&\273\304gK\274\265\224\240;H1\245;X\013E;Q`m<\206\2235\275S\007\270<\222\253\210;\206<\326<\003\352\212\274\227]\033=7\323\2559\271+D<\350h\302\272U\310\256;\324U#\275\325n\032\275>\003\256\274\377\360\020=jo\033=\257\272g;R\004\235\274\237\227O\272\001\274\342\273\010\236\334\275\277Qd=\365\357U\274\341t\037<X\030\t\275\325A\t=\022R?;C\314\205\272>\006\014=\250\257J\275@+\263=\234\362\253\274\200!\314\275\335\204I<L\217\024\275\352\374\262;$\036\026\272R\363\317=\330AE\272\347D\020\275\373\307\265\275\n\232\203\275\344lW<\341\027\347\273D\270.<H\242(\274F\360\310\275\321b!\273b@.;\271\ra=\020\210\r=7\006\363<\261\251\227\274\237?`\273b\242\304=\227\353\267\275%\210\224\274 ^@=\201\347%\275\316\036\030=\354\325\234=\350\204a\274\032\023\317<a\032\333;\333\226\202\2743\365\272<5y\t<\276x\371=\036\376\013=\317\352)<0i\307=k#!=\317=\205;\240\320i\275\377\035\262\274QT\254<\250\177\351\275\205{h=\334,\031\275\036y\240\274d;\217<\356\230\022=\006\355W\275\351w\'\275\252U\002\274\3309\007=ZO\215=\347ZF\275J\241\206<\'f\343<\025\267,;\375?\345\274\220\246\350\274\214\327\204<\357\234\002=\335\247q<ke\":\201\207\003;\315\372{\273\372\370\026\275\212\260\217\274\2432\032<\222\202\030>\335\366a;\354\207\354:\264\361\233\273b?\202\274\341>V:O\233\016\275+\360\005\274\244nP\273}t\311;\360\007\332<\344\327\034<0\262\277;\350\256r\271\021\352\351;\233\223{<\300E\275</\177\007\274\222\361\344:\206\235%=rC\261;\274+\354<\333\333\357<!\361\353:f\002\202<\242j5<Us\000\274\2347\320<O\313\361\273O\000^\274\263Nu\271\177\330\031\275\374\243A\273;`\300<\274\255\357=\3323\221\274\330\006\010=\014z\224;\030\031\310\273|\355\226<R@\213\274\261\231\353\274\244\262r\275\345vr=2\305\032\274\363Q\031;\303\320\t<|\250\005\274o\177\324\273sa\014\275\230\267\010<\254_\377;\347er9\353%\016\275\3141\000\275/\024M<\2722\004\273\310\340\025=\200\230\304<\356\3651:\320)\260;\216D\365\274\017\345n\274\244\267\003\274\224\245\370=\3155C;\343\224$;,\264K<s?O\274K0\311<\"\302-\275i(\202=\325\350\216<\347\215\033\275@h\217\273\"\344\262\271\211\261\2149\210o\237=CZ\r\274\342\310\237\273\006=\007<\275\301\n\274WL\374:\311\013\234\273#c7\272:\234>\273#*\357\273\303\324g<{Bm\274G\370Q;F`\372;TG\004>\021\361O<p]\307;r~\326\273\221\250\224<\241c\200\273\206\035\317\273@\230\024=[\247^<6C>=\3734\207\273e\347\346;U\236\261\273\004cL\2725\2306\274\274\024\204\274\030\376\216=Rh/\274\207Q\227<\324\250\232=\001\353\016=<\243c\274\305\226\005=k\006h\273\017O\264;\205~\354\274\237\253\207<#\367\362;\t\220b<5\361\337\274\016c3\273\370@\365<\254dU;t\334\000;\3208\235<*\222\223<l\360\216\274\323\017\372\274\337\374\351<2\372\'=\307w\027=\223\237G<\265\001:\273M\253\372;x\312G9\231\215\215<%\014D;\343\317(\275\306\231\014\275\247\'\313\274L\202\032\274\376\310\215\274\203\216-\273\370\\\306\274a\371.=\262\376)\274\026\276\350\273-\371\237\273\341R\300\273\251\200\016;}\362\337;\243\024\362\273;\225\342\274\364b\327;{N\023\274\372d\221<Og\021\275\226\355\232<\354Yp<\313\320\300\2748\346\003\274\264\243\272\274\341\227\200<\022\222\037\274q\003\357\274;E\277<\003h\244\274P;d=\367K\301<ih\021=\335(\"9\311T];\324\372\231\273,bg\274<b\266<\016i\303=1\3133\275\306\223e=}\370\370; o\034<A^\016\275`\257\004\275\326\033]<\313Q\304<\237\271\010<E\010\021\274wJ\n\274\371\335*\274\037\264-\275\320\201\267\274\375\354m;@\226\013>\035\365\2329\207m\362\273\\\016K\274M\261\250\274\357\263\001\274\033\033\316\274\364\020\266:G5\224\2734\314F=N\336\307<\236\361{<\337\035\333:dD\013\273\255\331\314;\324{,<\207\221\n=\337.\367\274X\346y\273<\320\257<\233^\356:;\200\232<\307U\323<\332\271\371;\3167\246<*\367\301;\366\236l\274\252\032w\273_\240\204:\217\002\353;\264\235\377\273\320\376A\275\225\323\273\273\312\231\235<v\244->\000\004s\274\200V\354<u\310t<l\220J\274_\013];8B\351\274\320,\026\274*\010t\275B\362+=\211\212\350\273u\"\203\273qzq\274X\236\337;\361jy\274\274\247\003\275845\274\272\241\221<L\267\374;A\351\026\275\374A\350\274\301\241\232\273\016\302/<l\213\357<\273#\222\273\336\203\005<FcY<\337\327\331\274\271\\y\274\357\201\211<\257\270\333=\203\'\177;\246\326*\274,\362\026\274<\360\236\274\256\310\342<5\351N\275\272Y\270\272)\350Q\274\301\323\026\275\254\021\330<y\tb;%Ct;\255\241Y=Z^\335:\322l\004<b\263\365<\322\031%\274\343B\350\270x\344\214<\365\205\321;U\245U=\315(\032<l\267{:\277\220\207:\207]\201<\206\200\373\272\t\261\024>\256T\310\273R\177\217;U\266\005\274\303\344\'=\241\364\007<\333\277\210<\033\321\204<\252\2445\274YNY=,I\211\272D\242E\274\025\311K\273\371T\232\274\000&\2519\347\034o\273\211N\232=0\326\036\274\202\204\366;\253!\265=/\352\276=ul\201=G\363\307;2l\216<\260\253\025=]\3208\275d\307\216;\367\242R\2748\"?=\276\247Y\2744-W\274u\206c=t\330\034\273\227\033w\273\323w[\274\215g\r<\032\367\001\275\235\205\251\273G_\350<\3254>=\255/B=\266\244\021<\364Tv\2748\242~<?\324\013\274B\340\275<\013KE=\200\022;\275\230\221e\275\210EJ<\215w%\275|\327\352\274\035\341\027=f\274\317\274m\340\331<\231\001\234\273\343I\375<\356b\240<\245\355 <*\003\017=R\014M<P_}<\206\005\001\275P\231\357\272\242\324(\275#\350v\273\0358o\275\177\305%=\020!\376\274\034\302`\275)X3<G\177y=A\006\371\272mAL:\3513b\273v\037!=o\342\032<\300i\013=)\343\364\274V\337\363\274\034M\201<jJ\024\275\347<\026\274\3130\n>J\210\334=\313{.\274\211\317\372<\036\346\201\274$\251\027=X\344+\275\177\035\326;BqL\273q\367S=u\264h\273\247@\210\273a\205\221=\021\004R\274fk\036=\310\235\203\273\277\374\337<y\215\013\275\3024\000<\"\225\351<\372\031\226=\262\253\216=8\321\304;\262[s;\035\212G\274\343\027p\274\257\364D=\006\206\362\273\211\275\\\275#\324\200\275W\324Q<J\010\r\275\246\334\000\2754\302\341<V\000:\275\037\222\300<AX\212\273\2265\020=\240\336\240<\024\027\214<|&1=\266\010\t<`\310\327\273\362)\021\275,\004 \272\304\355\251<\033E\333;\240b\237\275\n\t\021=\350\177O<Yg\206\275\n\232`;\314\327\034\274h_o<\223\212n\274\033\224X\274\"\241\202=,\2011=\315Ri=$\030]\275\324\362\307;\272\273@=\2315A\275z\276\017\274H*\301:\305\026\245<u\236\240=\306\037+\273jCe=\207\227\333;v4\307:\322\246\242<\270U\354\274*\243\314;\221,\207;4\340\002\274\026W\314;8#X;\232\236<\274q3\225;\260|\307\274\346\236\260;H\312\307\274\213\233\301;\016kK\273\312ZD\272\236\254\253\273|\373\203\274]0\235=\244\346\372\273|f\202\273oY\005>\310\326y<\215\275z\273V\025\014:\335\177\321\274\341/\206;\311\004A<\325\220\242<\254\305\025\273\232/\207\273\025V\212<\356_ <q\324\251;\240\205\026<\210\267\212;^O\033=5\365\276:\177\245O\270\275QT\275*\023 \273\255\356\010<\251H\376\273\337\204\021\2751\204\210\273\347\356\215<\317]\250=\2353\200\273\206)\311<\013\341G\273\"\237\231\272\311\275\230\273\020\356\347\273\365\355m\274\021\265\345\274\367\304\310\274p\317\335\273\306\352k;\373\244\255\2757\351\335;\346\377E=\233\024\251\274\377\210\355<`C\302\274\335AY=s\355\214\274$===\326\r\000\275\215I\304<\373\353\333;\003\326\306\275\322bN;\267I\270\274\034e\336\274\030\036q\274\361E==\372\002\205=c\204\367\274\2754\223\275s\271\206\275J\267\277:_\323\266\273\334\216\367\273\3215\274\273H\227>\275L{\010=\307\r\202=a\256\246=\"\273\273\273\005\307\3319\007-&=\200y\2309H\347{=\201\317\202\275\022\274C\274b\363\006=\224`\010\275Y?w<<E =\227\352\242\27342\231<\001%\216<1\222\312\274*x3\274h1@=\213\335\004>V\362\356<\013\"\327\274\250\351\022=\2448\007<\t\377\344=$\331\326\274\005_\300\273\350iC<\276u\237\275\003\014\225<\345\320\003\275\265\004Y\274^\341\037\275\253\205\352<\262\030\252\274\230\210\005\275\374Lq<\026rZ<LC\266;.\277\016=\264\010X<\271\017o<\022\216a\274\2373\312<\321\334\244\273\343\034\2129tc\372\273\377\211g\273gig<4$\223<\027\251\262\273\310\324\332<8\\\316:\261\331\225;\305\221\333\274\372KP<A\016\217\273zSf<|;\224;5\352\215\273\256\207\027=\277\251\"\273\323P\244\273\274C\t=yp\252\274H=\226\274\365QT\272\3370!\2745a\232\274\254i\314\272z\022\242;Up<<]\336\335\273E\022\236:\023k\204;\277\332\311\273\327\225\362\272\202k\202;\257/\256:~\264~\273(\312\371;\234\210\254\274\233\276v;!@b\274\244\177\243<\331c\233;\004\343\273:\261-1\273B\233L\274\026\3438\273E[\206;sY=\274\345s\026\273\247J\331\273\035\200\221<\255Xi;Nc\321<\312\')\274\337\323!\273\021~\237\272\330\373\331<\024\273\007<\225\317\004;\027n\373<J\227\331=,L\000\274\374G\016<5\222\333<\242\225\312\274\036Ea<\216\236\2617\336\325\027\274\030\264\322<\256\375\023<{\200\036\274\366\303\022=\324]\316\274\302\317\331\273H\014\276\275`U;;\013\344\010<[\247w<\232k\'\274\333\374w\274n\312\210=\301\203\023=\343\376\303<\032\324\021>\220Yq\274\2058\031\272\300md\273T\034\000;p\347\207\272z\"d:\235\353_<\256{\226:\307&\362\272x\325>\274\t\226\216\274e\004p;\331\313\010\273+c\367<\321\270\266\272([m\274\037\367\204<\0220Y\275_IC=\031\346*=\223\3436\274/W,\274\371\205\323:\344\277\361\273\022E\313\273\223\263\350<8L#<\351;\003\274\254#3<\020f\256\272\217E\253<\025\017\034<6\302\271<\262O-\275\222\203\371:z\335\037<\301z\244\275\275\315c=I\224\037\273\274\\\235<\357,&\275\231\252\320=\016G\'\274F\"\232;Q\371C=\010\216*\275\'[\027=\035%\245\274\213go\275\273\003\337=\343\222\004\275\375\212s<\214\207\216;\210\3012>\230\273M\273\234M\230\274\246^\253\275\372i\014\275j\202\'<0\303\210\274\222\276&<\2337!\274\255P\207\275\346\273\3219\215K\206\275\027\024\367\274\003\271\253<\210\336p=\345\350\n\275\276\233g\274\016\355\022>\250N%\275\373\314`:\016Hi=\252\203\007\275\365\n\255<\345\201\031=)B\335;\256K\320\2737\2575<S\3047</\244\010<E\3654=\372\256\201=\314\234\202=\305\274\215<l\271\026>\333|\233<\277\016\224\272\266\204%\272Y\355\'\275y\001:\274\031\247\273\275\316\201\217;\177%\231<\332\314\235=\036\'\227<?\315\323<\240`f<w\2225\275\304\236\221;\023\361%\274\270\217\346\273\227\243\211=q\365\340;\377\373\003\274\002\244N<s(\303<\240y+\274\002\365\004;DR\271\274\271\203\023<@6\255<\323\202\360;\203-`<\363\306\224=\231\022C\274,\232\240\274\345\031&\275\274\255\"<\220\224\325;\\[3<(\252(\274\363\302\260<\365\277+=ZJ\222<\257\320\201<\2050N;\350:\243\272\255:(\274N.\222\274\226\033\355<\257b\200\271D\010d\273,\215\036\274\321:,<\360\332\202\273\321)\230\274\312\323\215:\375i\246\271\327#\275\274vJ\003<j\372\026\274\332\217\032\273,\341G<a\007\"=G\310T<;B\330;\307\213\006\274-\274\322=\305\035\256\273\265R-\273q/\020\275\217\333\313<W)\001=\2746!\274\260\033\256<\353|\311\274J\215%<J\214\301<\r\227\006>[#\256\273\342\243\312;\335 \333;r\360\310\275\303\354x=\335\"\333\273\t\244\343;y\352?\274\2368\035\275\230D\323<\303D\364\271.\372\316<\257\303\205\274\273\325\267=\262F\276\2731\036\365\275\313\365\200\275\316\215\226\274\214w\321;n\214\"\274V\r\227\274\345\236Q\2734\355s\275\241k\276\274q\252\243\275\211\255\004<\353\330\365;\"GK;T\276Y\274mH\273\273_\257\332\273\222oz=\341\036\000>L\311\017=\306\363\205\274\372\022\240=\020\223\031=Z\033#<\r\312\241\275\276\236\264<:\374\367<..\273\274\037\310\003=\375\226\305=\2561\001\275#\t*=\302=\330\274_F \275{\331\235<Mv\222<\211\307\345=a\231\331<\237\213\201<7d\000\275c\214\2639A\311\214:\304\224l\275\036\377\305\274n\332\316=\026+d\275\217\032\270=\004ko\275\313|\365\275\310\246u<\313\330\365<ll\212\274D~#\275J\201\310<${\277:\3074\267\274\t\367\336;\205B\232\274\343$7<\206\320%;\026am\274\304\327\325\2746\216\255;y\355*\274\267\310\264<5\226\355<\364\206\354;\341=\275<\216]:<\"\036`\274S\320b\274B\330\354<;\227=<\217\355\311<\327\236w<8m\227\274H\222\321<w\344\205\274\277\034\034\274\350\322{<\345\330\014\275>\210\034<\005\017\271\273\016\177\'\273hs\006=\206\242#;\367X\337;[\311\226\273\224\2763<\377\271\262\272o\267\3049\213\271\245;\024\362\003=\261\000%\274p\323\256;`\022x\274S[\352;\270m\036<\370\317\271=!%c\273\313\254\222\274g\021A\274c\366o=\261.\004\274\025\367\033;\'\334y\274\353X|<\350\277d=\357L\000;*_\352<[\262\241\274\270\222~;\260Z\014<H=\017=\034b\026=J%x;[;\237<*o\033\275\325)\323\273\203\333\203;\013[\264<q\':<\236\351\001\274\214o8=\017(\251<\314iH=\343&v\274\"g\305\274\037\rY;\356\246\023\275!bM=5\216\352\273I(\356<\020\347h\274\360\253/=B\353\337\273\025s\237\273\212m%\275\232\247\007\275\265\340\020\273\251\024\211\272A\252\357<\307\242\331;\274)\214\274\253\212\333<\231\306\360<|\366P<f\003$\275[\232V<\246\254\335<,\332\'\274\341\221\017=^\030\034<\367cx;\020CF<\246\333\241\274\205~\":\247\324q\273\300*w;\304s\017\273\242\'\205<\312\312A\272\3202\210\273\034Q\203=1x\327=\030\230\266<\276\027\245<\003\215:=?\334];2\275\306;\3224\264<\305\031\203\274\270\273\002\275\0300\327\274\360\'\000\275w\360\227<\027k\220=&\221\010=\302\366J;)z\302<\365\326\233\274\033\035H=Tw\356<\237\3618\275\302a\357\273\032\030F>@A\357\273@H\337\272\023\236\325\274<\320x\275!\272(=\025\200z<\244\303\017<\307\226\203=\215nw<\030\020x;\265\364\3558.\330\\\275W\336\253\274I\t\332\270y/\227\273c\233\235\273VK\036=\265\236\033\275/y\016<\354\223E\273\362\3178>A1\030=J|\310=,\222u\275\361\020(:\321\306O\273S\005\013>\272\265\226\274y\206\260\273\223\264\212=\244\343\023\2750\256+\274\370\367\256\274X\304\010\2750\036C9\225A\020\274\243\310\245=)E\031;\255\255\331\274\317\006\257<\031\326\202=\344\001\313=!\265\324=IS\332\274\322\317\272;\267\006\327;\302\361\216\2749\"\010=kBi=\327x\323;\\P\020\272U\206\345<F*.<0k\010=ajo\274d}\263<\375\347\333\273\202\221\2239\271\275\205<\315k\315;$_\337<e\210\004\275S\r.\272\316y!;\214=\271;Ee8<\013\373\307\274\\Z\004\275\236\265\244\273C\275\305\273j8)<\030\016\001\274\005\222\013<y\032,<\226>\031<\201\277\271\274i,\233<Y\324w<w\345D<\007J\n<\256\377\032\274\n\341\304\274\240UN<\364s\267\273\rB\007\27485t\274\021\270\257\274j\251\021=\243\013\226\272\324\335{\273\240\257\306<c\217\221<\273\323\220<\365\335(=P\352-<\006\274\32298\216\325<\2431\206<\221\\R=\257H\177<\253o\232\273\021\204\"=\376m&<J|\026\274\000\362\210=4vX\273Q\220\312:\323@P\274N\267\034=@\362\177:\2204\n=\365VS\2746\025\212\274\230?\362<\245\324\347\273C{e;\330A\201\274\023\314=\274`\205\307<sh\364<\325\335O<\337\0278\273\235\334\325;t\220\016=1\352_;JTs<;\202\005\275D\023\"=\002\024\367<\211QP\274\332\006\356\274\350\234\265<\241\013:\274\346G\026\275A \006;\260.\227\273D\310U=\252RX\274\341\365\017\275\235U\023<\252\351\272<\333aD=\316F\017=\031\324\315\274\261\260$<\363\230\200:\217\032T\274\304/\021\275\211\223\225<\247\210\350\274Y\030F<\333\004P\275\224\222c\275k`\361\274/\223\324<\"\334\376\274\n\307\362\274.\371\017=\\\237c=\246\002\230;\327>\204\274\347\302\247\274\242\317\000\272\326\260\254\274\307T\217<\032d\260\273n\220\233:n\237<<\346Vy\274\362FA=\221g\347:\030 \036<\367J+\275\013\250\340<\2162\235\274/\220u=\347\232z<\255\312[\273\205]\202\275\236\217\317\274\367\215+\275q\252|=\006\035n=OJZ\275K|+<Q\2078;\345\013\360\273\276\320\377\273\003\250\323\273\n7o;\364\263\005<\177\360\\<\3076\263=$\265c\272\363@\215;\345|{=\303Y\013\275f\241\226\275\030~\313\273\014\373\276\274\032\251\022>\241\305f\274_\\\020<\370\023C;\213H\004>\306X\233;\226\020\\=\277\035i\275Z\221D\274)^\231;M\025M\274\025\306\226;\272\233\323;+\353D\275v\255U<\241\257\231\275\014\302\242\275\016\204?\274\036r<=T7\327\274\020\212+\275\340)\223=\307\031\330=\304Zi<\276\233Z\273%]\354\274\265|\246;= E\2750\272u<4k#\274\250\022\362<\311\002\325<\275\304\266\273\261\030\262=\362\025:=k\003\257;\305Z\';\332\345\343=\250\000I\274G^+<\337\267%=1v \275\366(\252\275\314\336A\275\004L\005\275\232\n\312=\357C\016>$\321\\<\033[H\272\032\313\020=\030\230\032\275\030\032f\275m6\030\273)~ <AP\203<\001\003\247\2730\005f\275\177\031\250=_\346\367;\014\017\203=\350`J\274\321\367\347\274\345\360\202<\206%\223\275CB\237<LE\221\274\331\314\257<rY\334\274v\225\200<[$\223<h\371\345\274}\313.\275\2117H\275\345R\204\273Z\320X<\233\314\205;\363S\302;W\026\204<:\360\253;e\226\262=D%\267=\210\371(\275\003\000\033<a\225\317=\022;\204<\362\224\034=!N|\274E\355\001<\270m|;T\352\353\274\233\205&<\364G\033=\342j\330\273,6\201;P[\372\273\025\336`\274\340<\307< 6\257=\005t&>\231\303t=\236,\007=\236\232\026\272\250\037\025\274\222\374\326<\345\371i<\224\014\021\275c\002+=\211G\374\274\2425\200\275\237\300/<t}\265=\354\255\027=$x\235<%\212\"=\227\255&\275\201\213\";e\277\376<\276i\355<\262\004\342<\006\257\365<!$a;\245\246K<\250\202\013=\346k\033\275wd\366\272\\\003\007<\\\253?\274\037B\315\273^\0345;\256\222x\2749\225\020=W3\343\2745\006U<\335\360R\275\231\215\246;E\336\020;z\034\322\273\026\301\352\2734\237\230\274}E\304=\351p\032<\026\265\036\273\222N\304=\321\235\371<\360\363\247;3\343\':\252\341w\274\263\260\352;\n\206~<\275\017\277<@m\023\273\255\230\032:\365X\320<\212z\322<\212\026\355:\220\026\222<\224s\342\273W\266\200=-\207!<q\204\006\273\240l\202\275\tK\225\272\276\205\267;\360\347\323\273\232{\003\275v\337\316:\3602\027=\201\315\215<\010\351\017\274;g\261<G\373\252\273\t\263\001;\260\316\023\274\300\177$\274m\034\004\271q\277\n;v$%\275\3264\330\273P\350H<\301\220~\275\270/\206\274h]\222<\376v\300;\206\377\310<*\2173=\376 \035=\273b\335:X1\253=67\327\274\026\276i\275\\\240m;\344TB\275C\022\027>^]\212\274?\0003\273\246\024[\274:\342\347=\346\322\224<\211\307\265<-\241\270\2758\227\020\275\306\313\240\272\n\374\016\274\260\326\274\272\276v\t=e\243i\275\3644\347;\032\016\274\274\311e@\275\352\305\\\275\3222\202=l!\301\273\n\311$\275\326\236\210=Z\034\240=\305\322\330;\331\253\335;)N\331\274\307~\217;\304f#\275#\202\233<J\343\335\273+\364[=sZ\215<42\244;\274\246\362=\244\t\021>\252\305`<\347\345T<\220\200\t>\263L\255\274\316\324\364<\241\2545=\304k\354\274\222t\322\275\346\310q\275\253O\354\274\301\037\204=\322\212\304=\210\"\315;\330\270u<\266\373 =sK\355\274\201,\027=\372uX=<\351.<85Z=\246b\203;K\334\206;l\257\244\274\014o\n=\322|\210\273>j\033=\200\314o\273,L\021\274\201\333\277<\t\330\270\274\272)\244\270\"\257\341<\353\020\321;\300\200\004\275\210\212-\275\264\271\340;(O;=Z\207\352<\262\024#<\022\325\231\273\276\355\016=\013\3043\273\206^6=p\255\t=\0374\355\274\033\320\320\274|>\264\273cj\323\274\004\252\257:\033x\241<R\0261\275\261\310\202<\226~\235;0Z{;u3O<(\376D\274)t\200<\316\346\266:\315\326\002;K\262\335\274\323\214\236\273\025\374\377\274\204#\003<J\371\031\275\243*\205;\034\337\361;\272\221\027\275\203\344V\273\334~h\274w\014\266<Xu$\273\324\034\020;\315\3074=G\213\256<\202\016O<\254\227\277\2744\333\013=\006\331x\273v\240@\273~\247\035\274\205\232\342\273\314\240\204=\347\254\n=\246\303\356\274\226+\243<l1\341;gk^<\263B\277\273\272|\022\275\304\322\276\272`(\335<\327\316\234\273\014\373\253\274\033\327%\273u\366\355\273\355\234\237\274vd\245\274\203\342\326<cz@=\337\326\372:\340\301`:e\263\237\274\023\372E\274>\026\035\274je\355<\265u\261;T\340S\274\177\203J=a\257E=\\\324\257<\276\227!<\354**;|I\227<xA\031=\320\024G=\3749\324\274\031\234\246;-Y;=F\023\364<\030\221P=\375\304f=\213\025\327\273-\225\251=\320z+<D\275X\274\240\301\225\273\t\362\325\273\224\325\207;\252R\250;\315i)\275\306\342\300:S\375w=\257\007\211=U\001\325\274\357m\204<\324B\206<\303wW\273w\200\360\273\016\324\274\274>\370q;\244DG\275\246C\267;)N]\274\347}2<\345\tR<Ehj\273I\t4\274\216\007i=,\300\010;T\201\231<\260\346\350\272?&\343<&\267\332;\274\324\n\274%\007\257\274\006\007\370\273(\004\272;\027\203\314<\224\006\360\273[\337w=Csn;\336\365\013<\230i+\275\320\352b<f$\202\274\205q\317;\3472\035;\327\337\362\273`\024@=\353\331\025;\266N]\274\377}\256<o\024\270\274\252\307\321\274\007z,\274F\022+;\340\257\315\274\223&\231\274\215l\312;\243\214\240<\200\023};\226\304\'\274u\301?\271\017\350\024\2743\227\214\274\274-\255;xE2\273\'d%\273\334\325P<8l\013\275\335\007t<\334\033\226\271^\345!<zk\325<F\305Q<\006\307\313;\370\212\357\274\030\312\036<\376?\376;\2446\004\275g\"M\274r\247\272\274\334\034\371<\223\213\003=Y\254\224=\351\306\251\274\326\237\035\273\355G\370\272e\363\210\274Q\350\330=\233\237-=\341K\343\273\325Z\366;\372\215\375\274{@\305\273gmi\274^s\007\2739\345^=\274\347S=E\217\364\273\030YO\275!t\256\275\351\032\205;\024\226\234\274N\334\020:B\210m\275\253\202?=\332d[\275\260\034\232=1\303\004\275\336\233\037<q`V\2730\265^\274#\235\267\273\253\275\262=\304\253\256<\245\334U<\264\r\237=\013+x<=e\027\275x\301\236=\030B]=\330\007K\275\350?\220\275\033\302\363<+\324p<\235\212F<Mp\230<t\037\272=K\310\256\274\376\335\306<\201\351E\2753\031R\275O\223\340\273%\000\252;y\360,\275\026!\0359j\220\336\274\025p\206\275w\017\322\273\210w\213=\026U\345;\317\272\222\273\343\277\354=D\270E=\362Hq=\256\260U\275\253\337\206\275L\333\004\275K\3032=\336\034\277<\263\257\375\274/aX\274\005\031\214<(\307\272:\\\234 <%\017\320\273Z\312\010\275b@\200<\364\347\023<\350\211\354<\tc\235<\213\251\032\2751\226y<\211\004U\275b\3365\274V\t\024\274\021J\341;\221\352\275;$r\357\274\357\261\272:\225\331\221\274x\200e=]+\341\274\366\3170<i\360\243;9\351<\273$\330\206;%\020\304=\266 \266;`\264n<\205JN=\360\262\325<\n+d\274CX\251=\370r\014=`{\004\275;\036v:\346\214\001=u\271\220\274\201\003C\274\213\322\212;\204c\307<\310\001\212\2748\344x\273\321g+\275\n\335\252\274\035\325K\271_\276b=\'\343\212<\316\305C=e%\324;h#;\275\210mL\274\202L\314;W[\006<\244\266\313\274\016\215\252=4\305\335<\177n\361;\373\347\020\274\342\220\206\2741)@<\225C\346;\361&\014=\204\270\255\274\254\'\204<\374\221\372=W\305T\274\323\242\010=\3314\237\273\022\227o\274Q \241\274L\rM<v\275\220\273\346\305\021=8\301\023=\333\362\306\274\271x\303\274r\363\226\275\235\014\003=\361\037\371;\376\244=<|\006l\275\237\016\306\274\327\\Q\275\036\036\233=>\2635\274\342\241\314;\261^\352;cj\272;k\001\267\273\367Dt=l\030#:\310=%;\334b\024=vh\302<6[/\275]o1=\301\036X=]\n@\275\204\306\232\275X~\363<9\271\006=_\312\337<b\201\017=\256P\270=\010\311}\274\216\223\367<\3769%\275\317\255+\275\3445\001<\035@\010\273\"\215\205\275\271\032\304\272\200g\200<`\332\233\275\365\021\272\273Uh\246\274\027T\014:z&\007\274\223\304\313=#)==)\371Z=\340\317\030\275;f\250\275\'\215m<\232\277\341<\237\334\201\274\032cv\274\351\214&=Y8\216<\375w\223\273\320n\032=\r\214\020<\025\310-=h\316\322\274\007\351\271<\325~9<\tmd\274\312\313\007\275t\240\203\273hJ\221<\322Vd=y\305/\274\336\336\t=\027\0030<\214\373\334</u\007\2754\367\377<\231/\212\274Xa\317<]E\006<\377\365\005\274\266\024\004=\330\214\262\273f\373\240\274\033\332\277<\032\333Y\275\266\375\"\275\026\032\344\273\346!\202\2732\313\r\275\260h\212\274\335\216\220<\264\r-=\027\000\034\273+\2315\273V=\t\273\332\327\245\273\313r\370\273Q\350\021<u3\325\273\034b\006\274n\037\241<j$\315\274\305\\\323<5m\314\274\313\225\036=N@\353;4\"g<^J\334\273\325\253\265\274\214/\230;\237\274\235\273\275\322\003\275\350>\250\274T\232\003\275\224\000\202=C\214H=g\352\021=.\3672\274\337|\034<r\2456\274\360\327\245\275\245\326\256=1!0\272\207~\251<E\'f\274E@0\275?y\n=\023\0051<\206\307\036=^)\005=5\301!=6\373\222<\003\364\354\275\324\211C\275\250\276\333\272\342\177W<\202\3671\273\364)Y\275\034\361\271;\370\251\237\275S\235\217=\343K\221\275H\025\226<\301\002\236<\214\244\200\273e\234\352\273\336\315\030>\300\274\276\273\341@>=r\364\026>\r&\t=\010\341\"\275\373K+>\2014\237=K\000U\275\2573:\275\"\037r=\263\210\225\273\325\352\031\274\331\037\215<I\213\342=V\307\025\275\027.\213<l\300\177\275\330\2749\275%\311\205<\032\252\214=\242\350+=\001\035\216=\366\357\217<\354\207\232\275\301\177\315\274}-\353:\020\241O\273*\360Q\275~A.>\330P\030=\311\200\234=\307{W\275\025{\310\275\273\373\257<\026\272\t=\363\354\217=\344\256U\2754\222\341<\200\203\246\273\\\200|\2745(B<,\227\221\274\361\302?=\350\272\202\274\210jv\273CG\273<U=\217\274:2;\275\213\335$<vv\342;dB\201=\205\356\033\273H\270O<A\363\032<,A&=\275\300\200<\332S#=\321P\014\275\305\300W<9\242\231;\000\223\346:f-F\274dW\031;\220\354\r\275\211Y\270\274\340n_\275rRq\275\3118\201\274\340sX=\215\306,\275\357\241\373\274\264\352\335<=\256l=n\025\254;\201\340}\274f\243\357\273;x\330;j\177\375\2745M\034<\037\227\204\274\353\333\277:\253\256\233<|\275<=<\201\352<M\213+\274\263\347\211<5\321\031=\266\221\036=\233t\010\273\003^I\274\246\235\240<\031\376d<\252hx\275\363\003\344\274\001\3145\275Ns\206=)\222\241=W\024\002=N\350\234<Y\342/<\267F,\274\357\204\264\275\331c\346;\325\002:<\230\334\214<\375<\271\274m\003\300\270L\335n=\235f+<Z\024\242=\243X\n\275]\233\204<\333\335\005\274$\352\255\275r<b=\326\270\306\274\311\326\217<hP\247\274[8\000>\310dH<\204\226\301\274\250-\246\275\203\333q\275?\317\206;g\206F\2738\307F<Nb\244\273\241 ^\275\3704\n<\016\211Z=P\331r=\314\203\244\274\2373\003=\302\222\032=\237i\016\274\211\265\317=I-\017\275gVf\274\236:\\=R\304@\275{\316%<I\263\016=k\t\014\273\373\221|;U\252\035=\350.\350\273l\357A<\316\333\207=\313tJ>f\037\317<1\233\274<^\330\331=$g$<a8\314<\032a\222<\253\277V\275\316.\356\274\270s\207\275<\301\200<]\2044<\036,d=\363\372\334<^%\342<\345S\024\274\003U?\275J/\033=p\372`=\257\265\276\274\266\322z<\265\303\264\274\322\021\256=Ny\\\275\366\331\300\273\020\":<\254\335\202\274L\352\211;\226\301\340;V\277\232<B\001\244=\214\271V\273/\256\277;\272b\266<1\274\222=\275`\306\273\364Y\017=\201dJ\275mT\013=Q\314\361;\331\250T\274\363\2035\274\344\251\244\274,\262W\275\274\207\201\274TH\233\275\242\024\214\275\225>\373\273_\016\320<h\357\216\275\3429\230\274W\322x=\326]3=M\337 \274r\253\266<\370y\236;$<\233<\222p\305<\367\337\021<\262E\026\274\374\325\331\273\363\224\275<\222\376\216<\273^\177<\022\335X\275e\212\244=6\363t<KIE=m\ts<\231\352\217\274\237\364\032\275\237\274\013\273r\242m\275\222\035d\275&\311\326\273\311\031z=\025@\n\273jm\222;,]\316<\331\343\006<\331D\225\274\334\035n\275\304o-=\276-R=\004\374{;\234\203\376<\323\264m\275E\320y<\205\267\270<\256\274\323<\2656\275<\360\262\010=\25148<\212k\265\275@YA\275\354\351\215\274\033!\257;G\026.\274|+S\275\271B\370\273\2167+\275\002\332\340<\201\016\201\275;\315\203<eYE\274&\372/=\322\005Q\274\007K\200=\347\320\246=f\270)=>W\253=\261\2249;t\002\372\274\t;\231=\235\261\352<\027\257\315\274$\033\337\274\246\032\313<\354\001\252;\314N\311\273\212U\320;\3345i=\371\316\337\274\273(\003=;\347\013\275\006\340\031\275q\2733\275Y\342B=\306\274\201=\010\365M=\310\237\305\274}sb\2757\310<\274E\\\213=\267Ro\274\222\341\350:@\335\217=.\232\342:\342,\000=\236LE\275O\272\233\275\2171\274\274\271\315?:D\232\261<\375\247\227\274>\"\276\273\036}\302;\0037o<\353\232}=\213w\337<~\351\231;\272\276:<\003Mh=\000\222\274\274\022P&;\303F)\274\360\"\016\274N\023\001<?\324\252;;\3669\274\345\007\212=]j\235\274:\0165\272fm\003\275\277;\344;\030\030V9\267P\256;n\313\223\273\275k#\274\001v\302=\343\220\014\273\025\354\352;\271f\244=P\021\r<\2305\204\273*\256\2419R\250\207\274?W\263:\033z\032<-\264r;\035\326\';\301\272\"\273D\253\003;\377\206\007<S\356Q\274\035\255%\274\312zV\273\350\345\267<\243CE9\246A\2518\342\023R\275\226\245\371\267\303O\006\271\264X\333\273\362\0176;\3562\276\272K35<\201\235\202\274\253^f;\203(\224<[\030\025:\006-\007<N\315\302\273\300\250,\273\275\"H<Y\234\\=<*\334\274l3/\271\014\257\252;\270\017\363=\375\263%>\3520\232;L\r6=}E\266\274Z\301\021>-h\225\275\0269\n<\260\031y\274P\006\300<\204\006\016=8K\220\274\247\346\270=\242\362\253=tm\210<\334V\3039\020\276\260<\332\240L=4\263U\274\006\356T=_o\234\274\226T\266=\371\277\333;\342d}\274\255\224\\;\036#\257\274Q{\351\274p\306\207\270FI\241\275\014?\250\275bo6=(\'\320\274\005y\204\275!\202\002=\245\212\'=A^\363<F\260\007\275\020\341\254=\247\310\315<\370\301\363<\250U\305=\310\350\247<C\331\275;Av\337\274S\326\247<\246\313A\273~V\307;\026u\333\275\314;\023>^uE<\272.\277\274IL\033=\003[1\274\025 \217\275b\321\013\275\0010\267\274\010\264\263\274}>\235=)\340\264=\226\361\343\275L\252\367:\352\314?=\010\321e\275\3304\006\275\304\255\030\275\276uu<+\0267<9\017\307\274[\270\251\2738\214\266\273\344\323F;\224L\250\274kr\345\273s\231u;\214\242\371<\372S\235<,E\367\274\354\375\245\274.\'\345:1\256\266\274\2538\252\273\310\332\230\27413\274=\232(f\274\300\016\024;\357\306\331\274\276\002\205\273\252B\227<\276\020\010\275\034b\246\273\005\301\345;\332\226\333\274$\244\301<nQ,=lc\021<U\331\345;\371>\316<\013\305*<\030\231\233\272\241?\324\274\374\266\322;K\372\215<rWg\273\003h\315<\267w\276<R\332\r\274\016B6\273\017\3764;\245\365s\274\361\363\225=\313\005\307\272b\nh<\377\204r9\003+\000<t\n\221\274[\034d\273\261\351\n=\214(\233\274\374\256\360<\361\357\026=\364v\016\274L7\262<\001\212\020\275\202~*\275\227\264\262\274d\256p=i2\025\273#\251R\273\310\241\253\275\207P(\274\003H\265\274\007\363\204<\250\224\302\274S:\246\274D}<=\006-8\274\332u==TH\323\274S\325t\273\211\371\270;r\275\221\275\032%8;\227\273\254\274\3572\210<I\342\200\274\341\244\000=.\205\312;\226>\245\274\272\306\211\275\256LW\275\275&]:\214Eq<\002X\232\274\373 \342:\245\333\026\275\243\233\023\275\200c\030=\007\032d=\343~\266\273a\r+=K7\341<\217B\365\273\020\024\027=\322\210J\275\261\036\334;\333\271U:\t\344\341\274\335\221\217<c\257\204<]\206\267:\005\225\"\274J||;w\201\237\273S\213V=Y\007\'=\031\335\367=\321Gb<\201\236U=\315\250\020=h\\\032\2734\023\016\274\335T\332:\020}\203;\364FE<\033Iy\275\365f\213\274\343\217\201\274p\337\027=\220\2104=\252\316\362<N\266\232\274j\345\347\274\251s\376\274\305\006e=&\352\326<\357\230\265\273tV\014<\335.\230=\303\022\303\274t\0218\274\266\215\227<=\277\r\275\222\226\031=d \n\274\355G\005\275\316\344\232=C&\243\274;\2143\274k\276\203;m\342\322=\202C\375<\223Q\305\273\265#s\275\3574&\274\323|\275;\310\322?\274\3149&:J\274\347\273\301/x\275\351\201m<k\030d\275\363\343\025\275I\230\021<\250D\204<\372`3\275l\036N\274\360i\313=\215\257\272\274`\007J\274\216c(=/4L\274\022\373\234<=e\013=8\003\207;6\202\236;\356K\264;\213\013\234;=(+\274/\321\264<t\315><\317\243\200=\236\350\261\274|\244\247=\036\0044<\353A>=\'\034\355\274~\360E\274#\031m\274{\335\226\275x\351#<\237\2717<\304\347\270<<w\306\274\370\275\315<\377B\263\273zf\340\274\3359\033\275M\272\366\273j\233\304;\027\310\035=L4\252<\214{\253\274\323\370\004=\032;*=\354\027\317<\330[1\274\210\376\013\273\307\356\361\271be\022\275 \267A\273\230!\006\2744zI=\t\2143\274\007k\2559\n\035\004\275k.\207\274\'\013\253\274\025\177\360\274Cc\245;\022\232\207\273\314jr=\336\366N\273\013\266\205: \214x=\242a\373<lV\005=\344^\301\273\365sM\274\022\235\330<Cr\261;\204\326\000<\316\"\251\274\264\034\274:\005\277\223\272a?\017\274\323\007\314\273N\305\302;\346\201\255\273\243E\250;j\'\034:\233d\376\273A\225\002\275;h\312<\311\253f=[\354\244<3\255D<\0222\263;S\311\364\272\237\237n\274\240\273+\2737\306\017;jtd<\004\324\244\274\237\255\313\273<<M\274\301\310\026;\351\274\'=\202`M\274\274\"\247;\340\334\006\274\372\217E\275\211\276\231<\020\024\265<\231n\235\274\251\360\230;\236\361v\274\372\315n<\301x\257\274\337\321\035<\363\021\237;\255\245\374<t\027b<N\364Z\275\377`\271\274`\300\034\274H\263\256\274\265\256\300\273\025\341\234\274t\316]=\341\004\314\274\353\237\205\2732_\022\275\\\206\2539n.\230;rV\272\274\353\251#\273H\236\263<\004\376\330\273\203W\026=|\223\213=\315\254\230<\374\250d\274!7:=\233T\242<\374h\206\273\247v\315\274\252\311\217<;\217/<cg\022\2740\2725<\034\2721=G\353P\274\3337\316;\346nD\274r\003\220\274\221\2266<\214*\217<\252\200-=\033\302\337<\025<Z\274\025f\357\274jSS\273\320_]=\360\001\323\274\304\324\236:\022\274[=\366\205\234\274\210\227\022=\021~\365\274\255Z{\275R\252\333\274\036\324\005=\035;\365:\377\300\214\274dn\341<8\251\323=\010 n=\212sN\274\035I\253<\333\024\276=\326\223\'\275\354\215\236\274\204\177\222\274\311r\024<\345fd=\222;\224\273\246\355\362<\177bU=d\037\332\273,\230\230\274\267\003\2709\000\341O=n<\177=Z\004\220<K\354\n\275\363\302\371<\017N\034\273\211\002%\274\3342)\274]?$\274`?\036\275\333\302\204<\300\2351\275\345\004G\275\205\342\255<\231\n\004\274T[;\275\354\"\254<a`\177=o\345\'\274\301c\341\274\370\312\212=\271\373&<\270\201\325<\272\210\216=\017-,<8\013Q<\023;\226\273\217\022\3279\370R\034\273\222\364\267\273\2112P\275\260Q\254=`\366\275\274\"\010e<\277\274\312<\204\021\231=z\336z\275\252\000\254;\013=\263\273\311\356\t\275\306\255}=<\2544<L!\225\275\303z\001\275\335\341E=\374\030\027\275\376u\265\274\357\257N\275\032\300\265\274\267\213 <N\000H\272B\230\365;\300\246\262\275\003\305\222=\020\030\016;C\241\232=\2756\005;\246\256\237\275\014\371\t=d\361\232\275\221\032\246<\006\013\260\2747\032\362;\245D@\274\226\022\037\275\213\0079<\371\004\327\274hm\342<\274q[\275E\377?<I+\337;\212G\266\273\277\217K=-|\302=A\203\224<S\223}=\356\322\303=11%\275\237!\231\273\234\242\003>\232?\"<e3\241\274\237\216\2678\260$\307<\307\303H\275\307\237\322\274\277\347\234;h^\\<Y\262\336\273\031r\213\274V\3304\275|J\255\2748.7\273a:\004>\377\270\373=\302\034\317=+M\014<\306\252\"\275\361,\257\273t\205\003=\'\334\322<J\022\020\275)\203\247=\351t\305:7\311\275\2751\365\177<?\225\340=\332T\036<A\220b;\327\021\255=\207\371\334\274\026\023@<\223\310\347\272s\303\341\274\202\367S=\322\317\211\273F\306J<\231\2240<l\276\021;\260i\003\275\013M@<\367Rq\273\233\261\002=\212Pd=R\206\235<\247\004r<T@l=0\360\350\274\312\032A\274\243\305.</&#;pX\200;\027\302\376<O\353m\274\320c\033=\372\333\274<\352\025\205=\373R\257<\037\276F\2758\004\256\273\006\351\025\274\022!8:\225\260\262=\260b\333\273\nO\210;\3043\321\272\364-c\273L\3647\274\034\t\372\273iC\362;\241\343\023<\316\336\245\274\343h\241<\260\351\036:\ryS\272\261\025\351<)W\004>\316\201\200<\250\354u<\341\336s\274\350\'\376=\006\025%;\233\206<<\261\274]\275DG+=#\367a=x?k\273FN\302<|m\375\273?\200i<\032Q\243\272~T\013>\303:\267<\312\0305:\017?\210<\n\003\210\275/f\215\274\342\276\342;1\201:<\301M\220<\002\301x\275\340M\255=\247\242\"<\007\250\220=\n\244I\274\210+\357\274\325\222\202<)\014\206\275\3477\245<_{\036\274bk_<\270\030\273\274\343\275\220\272\003\'\r\274A\210\024\275w\311\032\275\200xC\275\353\276*;t\020\242:\215\252\363;\317\270\030=\\\252\270<\n\214\261<4$\231=\307q\275=z\266]\275\227\351\306;\224H\264=\222l\211;\371K\212<\251\375\361\274?:Z<\361\231\213\274\227R\240\274bC\032;\235\207\251<\200F\213:\375Q\r\274L\204\255\273\322\374\036\274\374h\360\273I\325\305=\256N\">\332+\206=g\340\206<\024\324\211;5\253y\272k\306\217<m\346\272<\326M\370\274\037\376\345<\316\226\347\274\306{\214\275\231C\023<T\306\267=\247\274\232<\270\276\356;VDK= e\322\274P\273c;9x\255=r\314&\275\260\"\206<\022\275\233<\300\373F<\223\343\236<y\340I\274\236\205\216\275\'{\305\273\334\0054\274+\036\331:\322\000\361\274)\260\205;S\005?<\331o\022=FeK\275#\265&=\276\300\233\273\215\374\377<\232\317\347;\314\t\337\274\337\024G\275\315n\020<\365\036Z=\t\276\243\273\022\032\020\275\376\273\251<8\250\205== \031\274U\264\200\272\337O\221<\006\220\002=\001\361>=y>\247=;f\207<ao\231:\234\006y=+\276W=\"\242\263=\261\"\032=2\333\234\274\321\357\004>\235\266H<]\250\365\274>\301h=\216\0037\274\332\303\025\273]<\324\274:\215\034=\326\031\014\274t\205\301=\232\000\274\273\374\027?\275\2140\004=\021}\005\274\367\352\032<o\020\272\274\300{\020\275\'\325\350<V\025f=\024\3779\274\214n\365\273R\034Q;\212\240t=\315\327K=T\302S\273\005x<<\252u\207\272D\275\004>\256\357 \275\017\243};\207\2013=\353\342\016\275\206<\230\275\316g\214\273\274MA<\320X%>\331;\236\274\315\332\374;.\262\264<B\320\005>4)\036</\251w=/\226_\275\252\021\364<\022\363H<\362\\[\274\224\025\024\274\025jP\274\362\257?\275&\216j\272\201\241\366\275PA\275\275\231{\272<~\021A=\335\373E\275d\316\267\2746/\251=\310\026\263=\216\0346<\316\345\314:xA\327\274\032\326C<\300\237\025\274\350\363\245<\270\302;\274&\257[\273\335>\036=\036\004Y;S\211\236=\252\016\"\275\213\306\254=\270nt;\364\317\244=\352u\307\274\013S\262\272\201\n\227<\326\035I\275\356\321)\275\264wq\275\251\205 \275\271\272\016>\221\'\337=|KA<\204zj<\177\\\370<\325\243-\275\247\251\010>H\363J=\302z\222\274\027\377T;3!<\273\321qx=7#>\275\230\346\333\273\017\357\002=@\351\203\274P\215\252\275[H\021<\240\345\020=f\031\263=\341\226\020\274\n\006Z;\010\323\362<r/\340<\242\033\270<\341z\226=\323c\246;O\275`=/Bb<\245\206\325\273t\231\312\274\"\355\234;\247\313\265\274a\373$\274\010\305\313\275R\201\301\275p_\333\274\t|\034=\260\236+\275fE\205\274\267\033\200<\315g\341=c\010U;yA\314\274\254\212\355\274\226\'\330;5p\320\273^/\255<}V2\2746\316\t\275\222\030\367<\321\255\000=\206Kx=\226\037x\275\273n[=\035\t$<qs-<\356$\332\274\317/\346\273\307\"\362<\326\276\310\274\271\352|\275!\222J\274\205a\225\275py\033>vf\370=\002\210d<\262\242\270<Wj\367<\357\323\261\274\240\030Y>\366\"\254<\343\336q\274\277\377`<\0014\270\274\323\316\350<\206\333A\275(4\034<m\270*=\376\'\236=i{\333\275\343\213\205=\031\n\004>A$K\275\362\2169<\2706\024\273A\315\207=\2071k\275\346\003\340;b\224\227\275\342\255\356=9i\177=\210G\221<\210\016\205\273\300\232D\274:\004\023\274\226\002\260=\303O\205\274\362\363\307\275}\177+\272P\214?\275\214\341!\275\355\352=\275\327_\310\275\321\277\256\275\225,2;\350mI<\216\263\021\275\010\251\256\274/\355\231\274\345*8\275\315\310:=\264\224\215\274\003\257\235\275\206\234c=\233O\320<U\225}=\324Ih:\343K\366\274\243\245\036;*\177\334\275T5\246<\003D\\\274CY\023=U\217V\275i\"\206\275\205\312\224=n\230M=H\246@>\315\2739\275\304Q\004=\204\022\274<\336\260I<\364\250\374\274\264\321+\273_+\363;\242\n\212=\344\036\242<W\234\233=6M\353\2739\213M<z\223;=\313p\237\274\326\317\007<\335\350\250:d\005X\274\246#\\:\253\027f:\334\236K\274N\315\264<\333.\276\274\233\212\234:\r\233_\275\265\270\r\274\340\nJ\272zb\324:\252\344\236\272\233\333\211\27413\263=ENF;\371\224E<{\254+>\002I\327;pw\305;W\323\002\273<\267\325\274\230\270\'<;\326\001:\313\023A<b\276!\274\010\213\200\273\205\206\211\271\232\024\354\273\031B\017\2733\210m;OF\322;W\206\350;\344\325\245\272<;\3739\367\245\205\275{K\216<\321\242\302<\\\343\346\272\325\257\350\274\024\243\310:\3119:\273\025\216~=\177v\017<{\027\212<\267\224=;e4[;\214\241\273\273\237\020\364\272\363P\223:\340\000G\274})\373\274\007\260\354:T\n\214;\323\036\272<\320\2570\274u\311V\274\033z\236:d\342\372<\220\240\313\274\013\275\237\273\331G\032<\254i\003=Z?\236\273/\217F\275\216\2275<+\234S;\346\214\360:/f\271\273\"\255Y<b\273\240<F\367\224\274\303L\334\274e-j\275\336\004\237<\325T\010\273\345\0175<\277\272\200\273t\243\372;\000D\r=6\347@<Ak\216<\243*Z\275VV!<[s3\275\203\373\243<Y\017\207\274\336\0139\275=S\271\274\342\\\325\274\n\277\216<4\275\034\275jq\313\274\nv\352\272N\337\034\27589\275<\355p\265\273\341\213\262\274)#v<C\235.:BNK=C\2309=\"\030\243\273\234\335\336;\3354P\274r|\340\273\336eW\274\235\213\355<\r\303\003\274\200\r\227\274\004\304\325;|CS\275\276\256`=\022v\212=\352\356\266<\343\245=\2741\\+=\242\002\374\272\3765\036>7\373/=\020\035\272\273\345]\315<@\260\202\274\360\240\310=s?\024\275Ug\334;\342=\261\270go\243=\2659Z\275\355#\223\274\232\330\216=\310Ji\275ln\272<P\202\247\274\230e4=\031\303Q\275\320L\375:\246j\315=\233-\324=\236\254\220=l\332C<X\2272\273\271\004%\274h\317(\273yG\226=!\275\266\273\344;\210\2753D\307\275\310\237\230=O\374+\275\341\277E\275\265\027k<\216\317\260\275\265\376\367=\257\224\355<\002\202\007<t\347C<\034\203\250;\001|\010\2757\347\366\274!\001\243;>\003\025\275\271\344t\274]\247\277\273m\375\240\273(\236V\275\243a+\274\3321\'\274\256\300\224\275?y\023=\021\233\231\273\225\320[<\203?\364\274\255L\274\275\326G\275=\271\341#>K\325\206=#\216\345\275>R\226;\206`\336<W\n\311\275\244\262\251\274\265os\275s\302#\270wp\306\274s3\200;\004%\003\275\246+\023;?S\355<\245u\005\274\207\340\262<\226\302\3049!\232\002\274\234\211\215\274h]A\275RQ\266\275/\036\202\273\233D\261\273y\310\000=\355r[\275\346\026\304<\256\232\n\275\215\216\273=JW\307\274\345\216\276<\325\\\262<\373%\331\274\330\205\304<\230\331\264=\210_\305\274\030\025\304\274i7U=N\311\315= +\347\274\230\317\004=,F\374<\017\222x\2759H\202\275\361\262T=\325\321\007\275\203}\221\274\344p\005<\215\314\247<Hq\031\275R\215\210\274\206\213\215\275\365@\010\275+L#=wt\234\274\312\365\330<\320\341`\270*\331^<\023\246\220\275\221\037I\274n9\360\273\007\020\036<\211\274H\274\253*\266=\032\215\r=\243f2\274\374\372.\275.\002O=?\327H<\031\323\254<\001\254{\275\361\027\262\274q\233\345\272d\307\030=\306\224\022>\336\367J\275\235\351_=\025\335\020=X9\t\273\261\240^\274\316:-\275\013\013\223<\002J\200;\360\221\013<\242Q\317<L:\311<[\332\203\274\274\274\022\275Pk%\275=\205\334<\027\\\300=O\000\000<\347\007$;\222\301\303;#\341\246\274\355Qy\274\031GA=\312\035\022\274,\332\206\274Q\205\323=\275 \207<\350\313\006\274b\237\2169\034h\273\274\005g\006;\3454><\247\352)=9\236\237;\033\211\213\274\344O)=\272\335\361<\351Q\n=B\351\237;i\267\275;pj\221=\'g\035<\270\271\325\272\343\377\014\275\360\007\227\273\350\266\002:\030i\352\273\310\020Z\275\020\360\250:\323\251\214=)P=>\022 t\274-_\013=\2227\224\273n%\374\273:\001\222;\252i\035\274Y\321\t<\3566\214\275\036A\260;J\177\317;\257\022\223\273\036\367\301<\020\220D\274U\347\274\273\365:\031<\024\234\027\274\301M\002=\277\353\257\274l\375\317;<\005\022=\342\227\306\274\025kd\274\224X\004<$\362\223\274\217\341@=>\350c\274P\211\221<\257\224\200<H\300\251=\265,\215\274\006z\204\274l\241 \275\005e\010\273\201d\024<\220\3720\274\227\215j<O\000\242\273\371\232\017\275E\254\265:\212\217[\275\233Y\023\2741\350`\275\320\234\326;3\271\313\274CqB\275\314\313<<\026\240\005=\316\275\273<\361jL\272\343\272\003\274\203\031)\274\221\240\371\274\322/|<k\034\333\273\016\303\247;(\333Y<6\231D\274JS\207<\365\317\231\274\210\027+\272\336\345K\273\376\023N=\270\334\271<\341\216/\274b\214\235\2744\332\241\274\376\036\033\275\005~-\275L\344\034\273\366\3236=0\216\222\274\022\341\361;\021\330\266\273A\357\263=\257\231\303\274\353r\202<\005\274?=~\375\332\274\315\310i<;^q\274\231\345\025<\237[\031\273\201\335\244\273\275B\241;\240\313)<\200/\216<>X\000\275\256\327)\275\355S\230\275\351\027\205<@\331\262\273\270:\355<P\325d\275\003Z-<\003%\036=L\031\\=\224\207\355\273\t\327R<\277\362\233<W:\220\274\277\252\227\272-\2402=Q\t\266\274s\004\334\273\006\261\267\272\234\342\241=\256\031\326\274\"Qi<V\340R=)\210T\275\270\320g\274\2307/=\335\342\357;\216\214Z\274\n\207\370<\225\250F=:A\034\275\314\274W\273\327\260\014\275\002+5\275\321\267\037=\201\257\207\274\304\341]\275K\370\310\273d\266\272<\014\242j\275\374O\205\274L\265\227\274\237\312:\274\031\217\325;nTJ=\207e\306<\276#[=\365\2328\275\277D\230\275}\324\317;\341\021\364<,\275\203\275\244\262X\274y\353\n\274\362\332\206:!~j=d\357$\275~q\231<\257;\340<\221\005\204\267\3118\021\275\316O(\275\356WX<\351\2116<\273!0=\021\311N<\tH\224<\214\233\364\272)^\"\275o\022\305\274%JS<\030\211\213>\317\010\027\271\373\201.\2747\323\272;j\262\275\274\241\217Q<E1~\275\304nl\2709m\3128\244\226\242\274\217\211A<<\025x\273\032\0252\274\017\372\316<\333\232\202;_p\237;\362t\272<\376\244\340\273\033}9\274\013\256\240<\035 :;\\\004\331<\310\326\323\272\230\351\370;\300\200\224\273\262\364M<K\263\360:r\246\253=\24536;Ez\237\273\272m\233\273w\'\366\274,\215A;\325\006*<fk\030>R\243\313\273E\300E=;\201\020\274>f\264\273*\205\254;\374\"8\273\344\270\001\274\226\342y\275A\306\321=\266G.<\245\024\313\273\023\323\231\274\204\021\301;\245O[= \321\250\2739\335\346<\344\222`<\345#^<\323\005g<\363\216\275<R\364\372\274\272\300\031=^@W\274\257\236\022\275T\360\236<[\267\201\274\236&b9\'\332\240\273\tdq=\254\367*\274\352\363\235<\236\357>\275D\224\262\274 \347\344;\302\021`\274\300m?=\324\243\260\273\312\374K\275\324R\262=\035\201w;\354[\262\2749\314\346\274\211`\034\274B7=\274\316o\006\275\342\242b=[j\267<\247\250\306;\212\317\276<\340OJ\274NS\007:#N\262;\'\030\310\273l#]<\371w\216<\\\242(\274\376\0244\275\3052 <\331\004T<\267P\204\273\366m\004\275\320\263p=k\263\235<\362J\215=\216\272U\274\246\203$<?$\363\274\247q\200\275\301\204\202\274Q<\230\274Z\026\261<l@\373\274\331r*\274\371Z\336<9\035\031\274=TG=h\021o;\205\177\211\274R\3436;\346_$\275\201\031\013\275\343d\271\273\356\221*<\2515Y=o\304\201=+\032\330\275>\005K<m\\\006=\2125\347\275\253\"\205\273\304j\035;\320\223\222=\373\345\223\275\213-0\274b\227\033\276\023\210}>\373|\224\273\365\325\027=en\375:*\334\234\274\302\357\273<_\326P>$7\006\273<\252\272\275b\357c=\310H\320=\035\0207\275\374\026h<\004p1\275W\277\327\275{P\356\275qG,=\227\331w\275\263\373\023\275-\016\327\273HNn\275\006\322\355\273\254\223\326\274=\316\344\275\016\375$\272\232\004I;\023\315\r=\360`\201=X\n\352\274\3346\257\272\342m\356\275\335P\222\273Z\237^\274\036\362\304=\207\314O\275\021\367\311=X\217\r>@3:\274\226\207\035=\370P\020>s\026\357<Uw$;\333\371\010\275\334\226K\274\341W\330\274|\372D<\333\002\233\274]\233J=\225\231\212\273\337\0216\274P\177\233<\353\032\373<\006fV<x\315\n;&\256\214\274Aj\342\274\304\354\n\275\r\033\203\2757#\2149A\214%=\361\310\236<\027\245A\275\321\271e\275\n\245\014\275\234/\221=x\360u\274+>\217<\317\200\r\272\243\212\305<\314\034\232;L\273g=o\213!<F\322\220\274\300l\336<,U\200=\274\237\346\274Kf\256<\014k\234<r\305U\275F [\275\\\274\013=C\262\340\274JM\323\272?\002Q\273\275\343\251;\335@\354\274eG\343;n\310)\2756\027\333\274\364h\027\275\246@\000\274\265\300\034<?+\231\272\246\024\231<~\216P\275\205Tw\274\260\207 \275A\314*<$F\350\273\251|\201=\207\307\003=P\205\021\274\234\210\351\274\257^\003=\200\307l=\322\354\273\274\362\326:\275\003n@\274n\347\032\274\3372\006;\3609E\274\210\035:>Mz\n=\242\007\353\273\353O\023=\003\336\352=\307\022\001\275\370m\333:^Y\331\272\217\227d\274\222\007\034<_\3636\274U\016\211\273\270\227>>\336<\001\275^\366\\\274\274[\013\275\336c\000\274\270\263{;\241\004B<\223G\003\274\347\241\346;\203\270\006>{\034\255<\256)\010=\267\247\213=e\026\263<\271z\266:8\250\2009\250\205K:\343\317\212<\200V\201<A\210\371\273\024\201\211\274I\365/\273&\337\301\273\031\241\234\2729\014\235\274\242Z\305\273\374\205!\273\026<\235\273\267\363\351\273\345Z\316;_\276&\275\312\323\005<\230QC<\312N\255\273qB\316=W\\!\272gz\274\272j\021\237\275^M\355<\324y\342<\373\017t<^\242\275<\'\264`\274\263\216\005;\033~\270<\336\310_>\276\r\351\274<\\\250\272S4\213\272\317\032\022\274\214\317z\274\336\215\003=\315\360\205<h\006\033=\234\265\334:w\372*\273I\300\030=\276\035\363<A\355\266\274\270\334s\274\"p\r\272\303\373P\274{\301\376<:\322o\274.W\007=-\307i\2711\376,=\361O+\275\275\266-\275\341\333\030\275 \2712\274.\373\276;nnb\274\027\306\233=Yv%\273P\210\013\275{\'\300=\206\027\034\275\217@b;\013d\\\275\345\202n\274\"\246\226\274\n\316r\275+:\027<w\227\302\273+Ck<\335x\004\274\2401\301\272!\227\000\274V\312\030\275\323!S<Y*\321;\256\262\036<:,6<\260\3106\275\005;\325<\250\375\006=K\306\005\274\350C\215\274\327\245\020=NT\\<\301.\245<;\336\236;\\b\221;\304\207\026\275\021\370\017\275\031k\025\275\363o\266<E\376\023=y\313\320:qE\255\274\321\016|=\320\037?\274\305\001\002\274\210\341\004=\305\210\t\274\213\273\346;\237\343\032\275\242\234l=\221e\337\273\226\361\036\273I%\034=2\312T\275\2069\375=\200&\325\274Tv\266\275C\\\177\273w\2432\275 \351\311;z \345<\367\204\020>\274\313\036\273\215I\363=~\374\314\27573\r\275;\234\240<\377\243d\274;Vi;\363F\244\270\3502\315\275\306\033\002\272h\346p\274\3067X\275\350]0\275\035\350\363<`5v\275|\313>\275\310\227\361=\242W\344=\244\342\244\272>\247l=\016\312L\275u\237o<\215Z5=Z\3434\275<<$<kK\240<}\230\025\275&\340\277;\004\251\000\274\371\222\337\274\224\210E\274ON)\272cK\r>N\271\202=X\006\265;\037\005\232\275\231\033\t\274\200\026\320\275=\353\014\276\230na=\342\274.\275\302bM\275\214\326\324\2724\217\316<\375<\013=\340U \275\264\010\317<2%\260<\306\322\216=\350!K\275\347I\210<\344($=0a:\274Y\310\333\274\375\207\331\274\344\020\255<\177h\270;\020I\265<.\277o<M\371}<\241\207B\273\323\254\n\275+\010[\274\252\370O<\026X,>+\030\214<No\236;\271$\277;\327\304\200\274\356A$;\316-\024\275y\345\315\273\r\367h\273\275\"\251;[j\331;n\333W\274\274\205k:\235o\213:l\001\257\273#\360\370:\313\014_<}\272\206<\372\251\240\273!\205\n=\370O\331;\205\020\342<\026\251b;\322\331\031;Q\'c<\317\344V<\354\236\360\272\241\375\371<\234\337B\273\320\037\341\274-\317H;h$\027\275\347\227\355\271%2\t=\226s\372=b\236\204\274#\303\013=\223\355\243\274\343\356\244\273\264P\023=G\204c;\205\3425\275\022gk\275\302\343\200=c\372\341\273,h\204:\357\222\032<j=q\273]\212\371\273$[\017\275\257\021\020<p\324M;\004kj;\231\337\025\275\327\317\013\275Z\010S<T\251\317:@j4=U\345;<\330\351\2239\245h\355;\016\034\003\275\263\320\234\274\314\022E\2743\362\027>\354\\\314;h\202:;\0174S<\331$`\274S\234\020=\"\212;\275\325a\227=\266w\276<F\n$\275\217Y\321;<\353d\273b\305\374\272o-\255=\276\2336;\0071\341;t\362d<\374\035\343;\255\r\311\273\013Y\014:\005\rH\273\026\r2;\212:x:]\342\216;\023\342o\274|\357\316;\202\032c;!\033#>\243\226\223<\261)\325;-\374\236;\212r\010=\020Q\215\273\347-\225\273F\002/=\315\335=<\3161O=\217\016\r\274s\225A<]\0341\271\277\275\352:\034\342\210\274\272`\n\274\217M\257=,\342+\274\312Pj<\013AM=\367N\377\273\377\204x\274\256\356\226<@4\242:\260%c\274\010\270K\274z\243\241<0\365\300<\027\r </^[\275\234Fs<\014\207\326<~c\325\274,Xb9\371\326\273<\207\255\331<\207\375\r\275 \023\027\275j\325a\275\243\244c=\021\234\256;\351\0237<\261\205|\273!dk<\215\016\372;\241\247\377<\321c\000;\315\257-\275\344\241f<\204r\251\274}\3074\274F\201\233\274\310\263*\2751\317\"\275B\316\347\274b\322\354;\022x\000\275Jq\377\273}W\013\274\007)\002\275ae\214< \246\245\273#\271\007\275\253\204\225<\003\344#\274D\323\260<\305\035\246<@\2253\274\330\006B<\374\250,\275\232`\234:_\217\342\274\034y\246<C*!\274$\226)\274\237-\316<\243=\303\274\005\267q=\004\343\020=\033\177;=\336! \274\230A\204<\327\350\242\273M\327N<\330^m<(\003\323=\023\357F\275\330zg=\325-\357<Xlw\272Q&\370\274\241\261\t\275\2375\224<\274\303\331;d\254\373;O\270,;\005j$<\341\223<\274\030+\034\275\016v\236\274\215\301\027<\263?\027>\376\346a=\340\236\375\273\0248\211;\371\262\266\274\237}\360\273\357\340\276\274R\345\230:\276m\333\273\340\026`=\262z\003<?\360\347\2749\373(<\202\262(\273\262$\025\274\342\255\317;46\n=D\027\036=)\326\371\273\256\005\257<&E\261\271\217X\230<\262c\335;1\203\037:6\207\213<\313\346%<\303\205I\274\274\256\202\273\375\026n;u_C\274\034\036\272\273\0356G\275\236\022\343\2715I\305<\205O9>d\223q\274\224.\366<VC\313\274B\260U\274S\2548<z\243\034\274=\276\213\274D\232g\275\365>+=\225 m\274\360\371\307\273\332\013A\272\013\016\335;\300\366\215\274\206\367\n\275;hX\274\314\275\213<\377\000\256\273Sw\030\275\201\366\375\274j\214O\273\036X\004<\005\200\'=\362\232\241;\310\237\211<-\227\241<`\214\323\274\371\242\232\274\235\362\255<\267\000\013>Z+\\;\013\350Q\274\3511\210:\033\027\250\274\302\234\006=;r^\275\334\315H;\301gu\274v\006\037\275EBB< |\342\273P;$\274\017}\206=\350/\231\273\344\026F\273l]\010=\306\024\315;\200\3741\274\210\267\241<\032\352\033<\360@S=)\333\230;\336\251a:@\\,\272\331\204\223</|\242\272>\2743>\324\371e8\365H\021\274\327CU\272EN]=$\300i<\034W\343<\246\"\225<\"3\030\274\010\300j=\003\310\220\274\010#Z\274\313J\250\273\265\335w\273;V)\273av`;z@\267=\2752\177;\321\0346;\n\n\254=\243\220{:\312\241\203=\366;:\274\240Q\320<_R>=5\353\"\275JU(<\376\320\352;$b\\=\364 \216\275\224\210\206<\311\226\201=0\001$\274\352\222G\274@&\210\274Q\027\336<\376a-\275\234\247\327\273\244\214;\275\356\024Y=\025O\372<\351\003W<\362\335\225\274\336\001\363<d\"\354\273{\273\274<\034\301b={\257\234\275i?\204\274g\261\326\274\002\2466\275D\320#\275\271O\202\275K\373\206\275>\277\020<b\257\230\273\032\031\225\274\302\372|<90#\273\005Kr\275\034k\240<\320U\245<\032x\363\274`3\236<\274d;\275ZSY<[i\003;@\241\205\273`\315(\275\r\355c\275\"\344\031=\226\262\210=\301gn\272f\272=\273\344h\212\275\353\202\031=\203,?=\242\037\233=t?U\275\343\206\026\275\204\333\301\273b\351\217\272\244\025G\274\362L\006>\000z\345:\351\240\260\274#\017\016<}ub\274\376\nP=z\313\001\275\017\334\3729\351\271\260<S2X=\301i\227\275\344,I=\247\232\261=KL\002\275\003\222\027=Nj1\274\214\2073=\270\227f\275V\305o<\377\237c\275\025\215\244=\326\201\033=\370\t\026<\237\277\360:\374Z\216\274\323\361\033\274\022\003F=\377\001\274\274\302\240\231\275\201Z\212\274\034\250\222\274H\311\001\275\221\222<\275\017\355\234\275u\233\241\275YC\323;_4\223;\307\014\201\274\306\262\235<Z\253\220\273\026\226S\275\235\304\277<6u\323\272\363u\032\275^*\021=\205\342\004=5oJ<J\373\304:\2165\234\274\377\334\373;\265K\217\275d\t\373<\235uz\274\242\315r<|\352\251\274\213\342\236\275\257\303}=\0212\311=EB\335=\215\022\250\275&\314\233<\177\331\276<%D\341\274\205[P\274 \325\212;&\257\225<\322\355\310=\341\372]\273mBm=\260(4<P\004o\273v\337\001=7\020\363\274\224\2431<\316\313\t\270\270\250?\274D\207[<&_T<\007\033U\274\\e\250;\026H\331\274Zw*<\376\013\351\274R\244\314\272n9?\273(e\300;\220Y\234\273\357?\215\2742O\270=i\237$\274Fep\273\177\026\031>\010\036\316;\247\316\272\273\216x\241\273QX\342\274\023\305\014;S\354\002;*\344\217<Q=\241\272\336F.\274}\267\204<&\374f<\261\357\223;\255\330!:\377 s;Q\364\035=\366_*;\255\210\256\271\331\220q\275S\032\3579\205\234\370;p\2278\273\034b\033\275d\256\'\272\024W\314<\003A\302=\376\347\024\273%1\277<\254\372\301\2736\031\234\272;SB\272\214x\241\272\316\264s\274\206\370\001\275\3737\342\274\'\206j:yz\225:M+^\275\001\216\323<\351vL=\250\006\327\274(\205C<\267\256\317<\331\302k=\370\233\214\274\301?\007=\tpB\275\013\341\001>T\035\023\275\342\210\307\275\023$\213\275\246\251\330\274n\000\375\274q<\376;\235o]=\200ZZ=?\222\374=2X\254\275\002mD\275\337\374%<\316\301>\274\213Gp\274T\331\3228\321\263\232\275(\361\346<\222\364Z=u\253\240\273yH\270<\024\251\376\273*\252D\274\360\016\020<*\303\357=\365$%=X\240[<\305\205Y=\256\3244\275\344\014Z<dK\305=<\357&\275Q-B<y\371d<ZQK\275\245\244\230\2749\333\245\274\014\005\347<w%\256\274\233\2670\275\372\231\207=\3021\334;\207\320\336=C V\275\264\2070\272-]\205\274H\205\343\275/\246\263\272\335\323\214\275K^q\273b\200-\275N<\006=\306:D\275\232\345\037\275A\230?<\210G\020\274\014\324\326;x\003\337<]\230\206<Y[\376:\354\270\031\274w*\370<\270\367\262;V\r\235\272)S\272\274H+\2238\021@\317;h\311\331;\026\214\325\273zm\001=\222kQ;t\225\032:|U\347\274\225\263m\274]\210\221\273\347H\251;\326\262\210;\r*\257\273\245\017A=#\217\243\272U\205S\273q\365!=S\343\265\274\327\t\333:\303\225\267\2740\300E\274s\240Q\274=\322\312\274\'55\274\313Q<;\027\271\212\272\003\2135\274\344\030\352:bx\006\274\250\t\265\274\235{\273;\034\200\034;\243\227\002\273u,\004<\010~\276\274R\010\337;\333\231G;2\"\227\272\341\240\001;x\026\246\272\201O\253;\361\240E\274\034\215\263\272\233\013m;\323}\234\274>\037\373\272\352\023\004\274\3055\303<\230\345\230\267 o\355<\315J@\274\2046\260<\006\035\216\273\221\361D<\3475\027<\014\024~<[\337\020=\277\313\331=\333\275\222\274\322\267\322<Nv\036=\224\246\315\274H\232u<cm\022<\303]`\274\365\210\020<Q\010\271\273`e\033\274T\316\"=\003\312\001\275$\003?\274\n\261\306\275\201:;:Ev\014<\0347\"<6x\003\2745\220s\274\220r\235=\200\304(=*\342\005=\311r%>\352b\r<]\250\346;\250\372\3738\263\353\275\273\006\200\211<9\365N<\2525\243<?\347s\271:&\207\273\313\271\360\273\2537o\274\335\024\026;Q\"\t<\206\210\233<\253\361j\272dh;\274\334\210\254;\313\362\200\275h\t)=A\257/=\0230\212\273\300aV\274x,L;\364\355,\273af\017;M\020\307<5\335+<\310\373\206:\363\037|<\226\2555;\206\227\242;O5\333;\220\023\235<\022\n:\275\370\366\202:\224V\354;\216\204\261\273\312<\231\273\024\324\255\271\257)1<\025\273\'\275\333)x=k\337~7\246\260\210:\n\\\234=\363>G\275\022\346;=+\374x\273\343\322\210\275\371D\235=`\226\016\275\312\240\276<?-\200<O\013W>D\215\262:ULY<A\217\250\275Q\266\352\274\352\304i<Qp\240\274\301\267\213;\035\355\250\272Y`~\275\217\271d\273r\263b\275`\210*\275A\004\247\275\342kq=\\\342\307\274\236\367\217\275\222\033\343=\320\375\222=\313\334C=\024\013\"=\344\217\033\275U\036(\274\025\021\320\274\035b+;\017\327\202\274\272\231\367<Z\335q\273O\024\024<\360K\336<\2519,\274njY\274o\033m<\305X\037>\354\3673=\317\035\330:\323&\335\273\'\246\027\275\230\201]\275\303$\273\2753\010\331\274zE\236<&\212s=Z\203y<0\264\210<\323s\026>\031\224F\275\217\264\302\274\223\010<\273\221\377\013\274\260\320\227=\201\302\355;\360o\235\274\300T\272<\206\214\331<\234\377Q\274\362s\2719\244k\000\274\307\000\217:H!\261;\243\202W\274\034\n\204<\2330\245=\261\036\223\274\016\351\327\274\272\351+\275_\242\227\274\3319\336;\343\031A;\342+#\274\020W\305<\353\3563=\033x\262<\3265\234<\206\363\250;\256\353`<B\230\177<\253\314\t9g\370\004=\370[i<\367S\253;)\375\260\273\262\025\345\274b\206\206\273\372Ed\274\303_\026:\t|\343:\032@\274\273\370M\2118\321P\n\274\021V\210\273t\263\253:\347~G=V4\363;C\276\246<0x-\273D\322\352=\252\\9\274\023C\223\273\333>\"\275I\311\275<_\241\003=_\037\322<\363j\233<\271\007\366\274\030\266\335\273\367;\025=\024\252\021>\313_@\273\235w\231\273\002\007Y;\177\303(\274\200\023\265=\277\274!\274\264\022\233<\350#\210\274J\354\214=\311\241V<~\260.\272;(\227\273\205t\254\274k\334\017>\363\306{\275\020\363\304\275\222\023\267\275\t\324\242\274\217A)\274\252y\006=1v<\274\330\016)\274\ri=>\\\t\032\275X\320\370\274\342iu<\367y\3258\271W\244\273m\014\215\273V\226\023\275\303c.\273\214\021\261<\226\310\365\274I\272\267=\324\002\340\274\001\206\344\274\220\244\273=\316\314\376<\376\270\200=~@D= S\216=C~P\275,\256%=\" \020>\323ve\275A\007\272<\302\003\276\274\377.v\275:\272\202;\014\247\033\275\311\350T\275\"\240\324\274\225\304F;4\177w\274\337^f<\375T\225\273?Q\255\275_\336e\274a\007K\274\360X\206\2752\002\006>\362\324\213\275\244l\035\276\221X4\274\tn\274<\304\026\326\275\360g;\275+\323(<U\263\315\2736\305\345\274-\225\034<\321h\227\274-\260\241:\r\0172:\246\316\210\274\256\206\333\274>B\217;ov\275\274S\004\035=\260\372\371<\241P%<\037m\013=\373\237o<\2224\260\274\327x\267\274\317a\201=\022\006\201\274(\310\326<F-0<\330@\243\274\007\227\030=\006\'\254\274\256R^\272 \324\215<\336\327\037\275]r\005<t\343\352;\351\026+<\034<Y=\255l\341;/[\375\271\251\223(\274$\254\036\274\265\261\r\274\256\005C\273.\351&<\201\241\023=\016&\206\274w\"\345;A\254\210\274 p\330;\233T4<)1\025>~\201|;V\354\222;h^\214\271\347\370\271=s\rq\274\020\225\273;\351\304\212\274r\317\234<a\374{=\356\200\206<\321\341\357<\0066\301\274\032\341K<J\237\\<\312\361o=0\346f=\262\\\273\273\324\032{<\335\016U\275\307\327\222;X\n\004\274<\027\320<\336\024\246\273\361\367\332\274\247.\214=\026tp<\024!)=k\371\321\274Y\242\245=#\275\246\274\262\023L\275\352>k\275\026\300\n\274l\365\014=\210\222#\274_E\352<\214>\272\274f!\213\274\266\2517\275]%\r\275\324N8<N]\371\273\'\320x<\033\026S<\034\006\013\275\320\272\244<\355OT=\203[D=]\212\254\274aH\371:\271V\343<\220L\324\274\345z\212=\255\223=\275\266L\217<\233\230\200<\313W\224\274+dU\273\014\202V=\253N~\274\234\364\016\273\314k\350:\321\276\264\274q\374m\274g\2552:\333!u=\317\305#\274\213\326\035<Yr\004=\003z\373\272\200\207A\274\200U+<\242\033\211\274\343\3174=\353/@\275Y\262u\275hk\017\275\277\302\306=\243\371\267<\376#\001;\027\265\254;\202K\311\274U\":=\351\027\256<\374\337\020\275g\225\3539\365\341D>\034K\227\274k<\375<g4\256\274^^~\275\010\014F=6*\375<\235Z0<]\245\346<\312&\004<fM\247;\222\361\020\273a\274\224\275+W\345\274g\336\223;[,b=\374\250\353\273\225\364\003=\'\211\027\275\355kj<\343\224\t:\026sM>\037\202r=A\354\341=\355\236L<\254\3306\274\020\202\257;\353\323\001>.\227\257<\353h\n=\220\232\253=\343\246T=-WO\274\001\327\355\273\265d\233\274e\3548\273(F\264<i\357y=\371\310\030\273\326\3050\274Y\025\350;t\316|=}\326\312={\261\274=:\327*\272G\365+<LQR<\0210\177\273\346\302F=a\325F=\330\327#<B/\035\274\205\267\020=\246b\000=\234ha<\000$(\275:1\271<\245\262\354\272\267Pq\273^\205u<\262m\222\272\211k\311<\365\363\000\275/\007\2619\245\3009\272\243\345\r<\257F\033\273\020\254\301\274\301\306\036\275\227\315\032\270\206Df\273\337\211\251<\345$\245<\272\326\305<\351\001\237<\252,C<9\024\000\275z\201\336<\260.\261<\336\214\301\274D\251\033<\265\n\241:|\320\317\274\001\320,<!\304;\273\350%\362\273\3717\224\274\270\000\254\274\367\177\254<\340\032M<\360_\260\273\371\026\013=\010\010n;L\321];\305\204-=8\317\234\274]\001\035\274\216\021\343<\357\010\017=\240DE=\355\221n<V|\\<\235!\032=ZP%<F\256\255;\360P\240=sO\025:\023\366Z<\035\0017;\271\3178=&\316\3208\242\226K=}\020\177\274\272\033\320\273\200\242\357<y\342\234;\300\021\004;\377\274\324\274\350e\241;c\024)=\353\273\024=\035\336\214<\034\367\306;\210\237\300;\260\302\323\2740lE\274\344L\242<\300;\021\275=\035B=\206\'\236\2749l3<6X\331\274>0\027=J\310E\274\350\240\305\274m:\254<\260\370\232\274\2562\361<\330\035+\274\331@\"\275\014\340h:\035\316\214<>28=\350W\251\275\332p\372\274\372\235\216\274\342\221\266\273\346Ez\274\273\326\343\274\347_\006=t\272\203\274e]\213<\036\317\325\274\254\026\365<N\361\232\2753\001\266<\320\336X\273|$V\275w\002R<#\321[\275\330d\364<\245\260\227\274\235\032\216\274\322\254\240\273m\203\345\274\370h\026=\273i&\273\237>\233;KyW<VZ\243\274\366\210j=\0268\202=P\306*\274\343^5\275\231\265w<\200\337\306\2739N\223=\367\340\372<Y\276z\273\370\333\272\274\0226\267\274Q\353\216\275\355\275\301<\027\356\242=\216\031~\275\007B\n;S?\236=\3678\006\274\013\r\307\275q\214/\274\251\345\322\272\316\212\033;\314Uy<\237\216\027\274\350#\r=\032o\001<\364\312\246=u\032\"\275Y\214\223<\304\021\307;\232\006H\275\005\306H=\250\023\004\274\373G\304<\007n&\274=6\376=\263tK\274\203\353\007\276A,v\275\306\361O\275?\\\310\272\302V\221\274\324\252`<#|\316<\342;\\\275F\254@<\nE\316\274\023\032{=\366\375\255\275\367\324B=\na\333;\270\270\216\275Hv`=\323\304\332\275\217\001\213=\353\304\300;\344\230\220\274 \354O\273\224\336\021\275c-4=\316\021\312\273\376\211\354<\336lo<\320:a\274\t\003|=\024\331\363=H\265\363\274\271\277\230;Y\306\315=o>\260\272\"23;k\313^=:;\034\275\0027\232;\330\323F\275\021\370\272\275\001!\025\274\212\3320>\203\0073<\344\001Z:F\374(>dC\023\275\222x\215\275\205\366\307<\343\032I\274*3u<\312\222\321\274\272\221H\274~\310\332=\202\026\017\273\0323\034=\251\346\020\275\342B\365=\307[6\275\242\313\246\275Q\353\335\275~J\310\274\276\322L<W\031\312\273\336\314\252\273\330\310\324\273\227\250\235=^\333q\275\240m+\275\'\266d<\320\220\260\271g\"t\274\020^o<?g\374\274\336\017\333\273Ik\257=BS~=\335\200\204=\233\177$\274V\323?=C(\357<\352-\270=\3521.\274o\324+=\367\303Y<\306Y\035\275\354X\200<&i\013>\215\t\030\275@i`\273Q\303\377\274\2768\026\275\264\3665<\203\376A\274m\253\230=:\233n\274\204\205@<-\007S\274^\205L\274_\365y\273\302\013v\274\327\002\034\275\240(\267=\355\304\234\275\254|\267\275\376*7\2757e\354=\025\317L<e\037\216<\237\273\217\275\002\332^\275\240\360\016</h\367<)\2665=\262N\355<i;\376<CK\032<I\033\227;\346\2034=\362\354*\275T\337>;X\000\224;Q\302y\274\251x)<nWX<\377\030|\274\033_\030=2O\001\275\363\266\260<\231Nx\275pgF\273n\306b;\323\347\003;\020\003\346\273\2107\254\274\371\236\337=kK0<\376X[\273|\336\343=\203\312\223<\033\r_;\367,\2779\366\210\206\274\233:\346\272\357\005y;\3214\270<V\177\201\273\265\377\346\273\326\263\335<\240\360\023=m\324.\272\351\376\032<\370\025\267\272\244\344~=\177\247:<\351\245\024;\315W\225\275\343\022X9j\'\330;\366\014b;\364\236\020\275\261\332\202;2&M=E\377\300<\341`\253\273y\022\241<\315y\313\273\021\366\020;\360+\336\273\357\256\2149\000\024\212;6\014\220\270\316\0043\275\221\022`\273\035\3057<<\245\352\275\231\257R\274\365\202\224\273q\357S:$O\364;Z\277+\275`\177\247=\307=\304\273\242\342\256=F\300\'\275\353\307\000>\277\003\313\274\251\212\241\275y\026\362\274\343\265\206\274z6\247;\232E\225\274\224V\305=\017\357(\274L\203\374\275\217\366\275\275`a\210\275\256\177?<\003\321\177\274\202\024%\274)\257]={\303\223\275\207\010\006\274\236J\022=\300H\275=\r\332\322\275\253fU=\t\216\354<\031\203\250\275+\220\270=\346b\001\276h>9=\230Lm<\222\262\306\273\306\214>\273\2727\256<zM\037<G:\304\273G\233\027=ks\202\274\237\252$\274\350U\002=\336\324\355=\300\243x\274\207i\330\271\316\331\354=\232\362E\2744\262\244;\022-\032=e\314\335\274E\301\013=\305\177\240\275Z#\267\275\242Nw\275\265\r\367=\316\\]\273\275\277\321<1C\353=\254W\001\275\005*a=\254\r\213<\252}=<\331|2=`3\332;\324`\205<(\316A\274\310\247#=\264~\274;\264E*=\216s-\275\355\003\333\273^\326\004=\222\177\030\275ug\205\273\033\363\301<Z\361\304<\234.+\275\274#A\275\266\255\023\275\177\267{=\033\262\231<\016\307<<\020\341\230\273<\247+=\354\014?9\277bY=\r\263\021=\312\257\026\275\320\264\032\274\022tf<\224\246\331\274\n\007\361\273\235 ~\274\333;\\\275~\327\206\274\361\027R<<\253j\274\2478\264;\217\214J\274\221t\330\274\332\360\262\270\222\265y;\026\267\377\274_\t\025;\233\345\001\275\346\r\025<\2316E\2746\217#\274\327\001~;\233\014=\275D#\205;C\250m\274\366K\250<$\246P\273\341E\263\273\366\327>=N\274T=U\254\311<\321\251\037\275\001B*=/u\r\274aE\216\274\026\021\367\273\212,\254<ZB*=)2/=\216(\375\274\004@\222<\311\340\344<\356\037\030\274\214}\021\273z\020\035\275\033r\300;\373\213\351;\214\375\236\272QQ?<\032|\216<\006Q\307\273Hd\247\274p\310\254\2741\262!=\311\3246=\250_\373<#\312O\271\\\320\r;l]:\274\255\262v\274\030=\021=\266T\027<2\306\233\274\344)f=\367\315V<\262;J\274T\010&:\242g\017;\301Pp\274\034z\246;\236m-=u\243\320<\376\325\361\273\255.\'=\255\277==D\256&=)8\225<\013\324\2249\362\313\240=g\306\201<16\356\272{\345\205\274\353\177K\273\rMI\2740_\031<N?K\275y\031&<I\021\263=Jh\223=j\211\262\274\201\"{<\320[\025\275\366\034\014\274\250\3276\273\031\032\346;\343|d\271\356\035\\\275\265\004\3768\314\030w\273\353\272\r<\351\343\231\274\256?\037\274\t\2635\274X\001e=if>;\351z\270\273\314\376\037<\331\200\t=\033\013\206<\2161*\274\314\233m\274;]O\273\374G\304\273|v\373;\340\341\275\273\337x\240=#\203\303\272\020\256\332;c\0222\275\274\235 \275?\304\212\274G}\357\273\207~%\272\3769\325\273\003fc=\373}\251;\252\221\034\274\210\345\276<u\n\033\274\205\247\025<\"\265\002\275\177\214\222;\000\320\363\273\371\245\346\274vE\004\272\330,\350\274\362\366e<\207\373#\274\222\207r:\177\357;\2746\004\236\274\374\205\036<\320\005\034\272\250H \273@-\020<W,\000\275\307_A<l\250\345<\333\3423\273\3675\r=\312\205\023<\340\257\017<\222\244\014\275\352\300]<\'\307\002<\250\2302\274\346\317:\274^)\022\275\352g(<%\0212=\316\230\261=4\240\243\274\212\205\342<\214\344d\273\312?\273=\332~\234=1!>=d1\341\273\014d\256;\255\254j=-e\272\274\331V\035\274@\206\212\273]^\212=\3063\020\275UD\037\275:$\274\273\236\207\227\275\310*\370:\273[\334\274\215S\034=0\006w\275\3048b=\244\033\016>\342\277\316=\'9\356<\377\310\312;\231/n\273\006s\240\274 